<pad>	0
<unk>	0
<bos>	0
<eos>	0
[SYS]	0
[/SYS]	0
[USR]	0
[/USR]	0
[ASS]	0
[/ASS]	0
[MEMORY]	0
[/MEMORY]	0
<0x00>	0
<0x01>	0
<0x02>	0
<0x03>	0
<0x04>	0
<0x05>	0
<0x06>	0
<0x07>	0
<0x08>	0
<0x09>	0
<0x0A>	0
<0x0B>	0
<0x0C>	0
<0x0D>	0
<0x0E>	0
<0x0F>	0
<0x10>	0
<0x11>	0
<0x12>	0
<0x13>	0
<0x14>	0
<0x15>	0
<0x16>	0
<0x17>	0
<0x18>	0
<0x19>	0
<0x1A>	0
<0x1B>	0
<0x1C>	0
<0x1D>	0
<0x1E>	0
<0x1F>	0
<0x20>	0
<0x21>	0
<0x22>	0
<0x23>	0
<0x24>	0
<0x25>	0
<0x26>	0
<0x27>	0
<0x28>	0
<0x29>	0
<0x2A>	0
<0x2B>	0
<0x2C>	0
<0x2D>	0
<0x2E>	0
<0x2F>	0
<0x30>	0
<0x31>	0
<0x32>	0
<0x33>	0
<0x34>	0
<0x35>	0
<0x36>	0
<0x37>	0
<0x38>	0
<0x39>	0
<0x3A>	0
<0x3B>	0
<0x3C>	0
<0x3D>	0
<0x3E>	0
<0x3F>	0
<0x40>	0
<0x41>	0
<0x42>	0
<0x43>	0
<0x44>	0
<0x45>	0
<0x46>	0
<0x47>	0
<0x48>	0
<0x49>	0
<0x4A>	0
<0x4B>	0
<0x4C>	0
<0x4D>	0
<0x4E>	0
<0x4F>	0
<0x50>	0
<0x51>	0
<0x52>	0
<0x53>	0
<0x54>	0
<0x55>	0
<0x56>	0
<0x57>	0
<0x58>	0
<0x59>	0
<0x5A>	0
<0x5B>	0
<0x5C>	0
<0x5D>	0
<0x5E>	0
<0x5F>	0
<0x60>	0
<0x61>	0
<0x62>	0
<0x63>	0
<0x64>	0
<0x65>	0
<0x66>	0
<0x67>	0
<0x68>	0
<0x69>	0
<0x6A>	0
<0x6B>	0
<0x6C>	0
<0x6D>	0
<0x6E>	0
<0x6F>	0
<0x70>	0
<0x71>	0
<0x72>	0
<0x73>	0
<0x74>	0
<0x75>	0
<0x76>	0
<0x77>	0
<0x78>	0
<0x79>	0
<0x7A>	0
<0x7B>	0
<0x7C>	0
<0x7D>	0
<0x7E>	0
<0x7F>	0
<0x80>	0
<0x81>	0
<0x82>	0
<0x83>	0
<0x84>	0
<0x85>	0
<0x86>	0
<0x87>	0
<0x88>	0
<0x89>	0
<0x8A>	0
<0x8B>	0
<0x8C>	0
<0x8D>	0
<0x8E>	0
<0x8F>	0
<0x90>	0
<0x91>	0
<0x92>	0
<0x93>	0
<0x94>	0
<0x95>	0
<0x96>	0
<0x97>	0
<0x98>	0
<0x99>	0
<0x9A>	0
<0x9B>	0
<0x9C>	0
<0x9D>	0
<0x9E>	0
<0x9F>	0
<0xA0>	0
<0xA1>	0
<0xA2>	0
<0xA3>	0
<0xA4>	0
<0xA5>	0
<0xA6>	0
<0xA7>	0
<0xA8>	0
<0xA9>	0
<0xAA>	0
<0xAB>	0
<0xAC>	0
<0xAD>	0
<0xAE>	0
<0xAF>	0
<0xB0>	0
<0xB1>	0
<0xB2>	0
<0xB3>	0
<0xB4>	0
<0xB5>	0
<0xB6>	0
<0xB7>	0
<0xB8>	0
<0xB9>	0
<0xBA>	0
<0xBB>	0
<0xBC>	0
<0xBD>	0
<0xBE>	0
<0xBF>	0
<0xC0>	0
<0xC1>	0
<0xC2>	0
<0xC3>	0
<0xC4>	0
<0xC5>	0
<0xC6>	0
<0xC7>	0
<0xC8>	0
<0xC9>	0
<0xCA>	0
<0xCB>	0
<0xCC>	0
<0xCD>	0
<0xCE>	0
<0xCF>	0
<0xD0>	0
<0xD1>	0
<0xD2>	0
<0xD3>	0
<0xD4>	0
<0xD5>	0
<0xD6>	0
<0xD7>	0
<0xD8>	0
<0xD9>	0
<0xDA>	0
<0xDB>	0
<0xDC>	0
<0xDD>	0
<0xDE>	0
<0xDF>	0
<0xE0>	0
<0xE1>	0
<0xE2>	0
<0xE3>	0
<0xE4>	0
<0xE5>	0
<0xE6>	0
<0xE7>	0
<0xE8>	0
<0xE9>	0
<0xEA>	0
<0xEB>	0
<0xEC>	0
<0xED>	0
<0xEE>	0
<0xEF>	0
<0xF0>	0
<0xF1>	0
<0xF2>	0
<0xF3>	0
<0xF4>	0
<0xF5>	0
<0xF6>	0
<0xF7>	0
<0xF8>	0
<0xF9>	0
<0xFA>	0
<0xFB>	0
<0xFC>	0
<0xFD>	0
<0xFE>	0
<0xFF>	0
▁t	-0
▁a	-1
he	-2
in	-3
re	-4
▁s	-5
▁the	-6
▁o	-7
▁w	-8
er	-9
nd	-10
at	-11
▁c	-12
on	-13
ou	-14
it	-15
▁b	-16
▁f	-17
ed	-18
is	-19
ing	-20
or	-21
en	-22
es	-23
▁p	-24
▁to	-25
▁m	-26
an	-27
▁and	-28
▁h	-29
al	-30
ar	-31
▁d	-32
▁in	-33
▁of	-34
as	-35
▁l	-36
om	-37
▁th	-38
ic	-39
il	-40
ion	-41
▁I	-42
le	-43
▁T	-44
▁n	-45
▁y	-46
▁g	-47
▁e	-48
ve	-49
ent	-50
ro	-51
▁re	-52
st	-53
et	-54
▁you	-55
ly	-56
ac	-57
▁he	-58
id	-59
▁be	-60
ut	-61
▁S	-62
ot	-63
ay	-64
ow	-65
ad	-66
▁on	-67
im	-68
▁is	-69
▁for	-70
▁A	-71
▁u	-72
ll	-73
ur	-74
ig	-75
se	-76
ver	-77
▁st	-78
▁that	-79
ith	-80
am	-81
ct	-82
▁it	-83
▁The	-84
▁C	-85
▁with	-86
ir	-87
ld	-88
▁was	-89
▁we	-90
▁M	-91
oo	-92
ce	-93
ation	-94
▁H	-95
▁as	-96
▁ha	-97
▁wh	-98
▁an	-99
ch	-100
ke	-101
▁B	-102
▁W	-103
ill	-104
ter	-105
▁"	-106
if	-107
her	-108
▁P	-109
pp	-110
▁are	-111
ol	-112
▁fr	-113
ul	-114
▁pro	-115
ge	-116
▁at	-117
▁r	-118
▁se	-119
ers	-120
ht	-121
ess	-122
ore	-123
▁or	-124
▁com	-125
▁ne	-126
▁de	-127
▁D	-128
ain	-129
ab	-130
▁con	-131
ant	-132
ate	-133
▁L	-134
us	-135
est	-136
▁F	-137
▁ex	-138
▁sh	-139
un	-140
ould	-141
ie	-142
pe	-143
▁your	-144
th	-145
ment	-146
▁not	-147
▁have	-148
qu	-149
ure	-150
ist	-151
▁R	-152
el	-153
ust	-154
ight	-155
ri	-156
▁from	-157
and	-158
▁her	-159
▁v	-160
▁me	-161
um	-162
▁al	-163
▁O	-164
▁do	-165
▁G	-166
art	-167
▁E	-168
op	-169
▁can	-170
ive	-171
▁this	-172
ome	-173
▁his	-174
▁k	-175
ity	-176
all	-177
nt	-178
▁ch	-179
▁N	-180
ard	-181
os	-182
ort	-183
▁so	-184
rou	-185
ack	-186
red	-187
▁by	-188
▁pl	-189
▁(	-190
ra	-191
out	-192
▁su	-193
▁ab	-194
▁will	-195
▁wor	-196
▁sa	-197
ies	-198
▁all	-199
ide	-200
▁j	-201
em	-202
▁up	-203
od	-204
▁but	-205
▁le	-206
ook	-207
res	-208
▁J	-209
ally	-210
▁He	-211
iv	-212
▁my	-213
▁out	-214
oc	-215
▁they	-216
ak	-217
ud	-218
our	-219
te	-220
▁had	-221
▁whe	-222
very	-223
ind	-224
▁tr	-225
▁she	-226
ost	-227
▁Th	-228
one	-229
ast	-230
ake	-231
ag	-232
▁us	-233
ice	-234
gh	-235
fe	-236
."	-237
ine	-238
per	-239
ther	-240
ime	-241
pt	-242
ood	-243
▁li	-244
ear	-245
▁their	-246
are	-247
▁cl	-248
act	-249
pl	-250
ong	-251
age	-252
▁It	-253
▁en	-254
▁go	-255
▁one	-256
▁has	-257
▁fe	-258
▁ad	-259
ial	-260
ne	-261
ous	-262
able	-263
ace	-264
ich	-265
▁more	-266
▁man	-267
▁Y	-268
▁te	-269
▁comp	-270
▁about	-271
▁In	-272
ite	-273
..	-274
ions	-275
ame	-276
▁time	-277
ry	-278
ated	-279
▁our	-280
▁them	-281
▁were	-282
▁int	-283
ip	-284
▁im	-285
iz	-286
▁She	-287
▁said	-288
og	-289
▁like	-290
now	-291
▁ac	-292
▁U	-293
▁there	-294
▁who	-295
ick	-296
ap	-297
▁would	-298
au	-299
ond	-300
ach	-301
▁any	-302
▁qu	-303
ays	-304
▁cont	-305
▁some	-306
reat	-307
ance	-308
▁him	-309
▁K	-310
▁work	-311
ans	-312
▁other	-313
ven	-314
▁get	-315
so	-316
▁what	-317
orm	-318
ep	-319
▁ro	-320
▁sp	-321
ire	-322
▁off	-323
ail	-324
ove	-325
ue	-326
ree	-327
▁We	-328
ib	-329
▁look	-330
ass	-331
ark	-332
▁which	-333
▁ag	-334
▁app	-335
ign	-336
▁res	-337
ia	-338
hed	-339
▁know	-340
▁over	-341
▁when	-342
ile	-343
ase	-344
▁pr	-345
▁if	-346
ings	-347
ber	-348
ink	-349
cl	-350
▁un	-351
▁been	-352
▁into	-353
ction	-354
▁want	-355
▁per	-356
▁sc	-357
ck	-358
ff	-359
▁dis	-360
▁ar	-361
itt	-362
▁back	-363
▁just	-364
ound	-365
own	-366
ose	-367
▁also	-368
▁could	-369
ations	-370
ily	-371
▁pe	-372
ult	-373
▁They	-374
ary	-375
ence	-376
av	-377
▁new	-378
▁Ch	-379
hing	-380
▁This	-381
▁need	-382
ress	-383
▁year	-384
▁V	-385
wn	-386
▁part	-387
erv	-388
ru	-389
ical	-390
▁than	-391
▁spe	-392
▁sm	-393
cess	-394
du	-395
ount	-396
▁St	-397
▁bec	-398
oy	-399
ov	-400
round	-401
▁bl	-402
▁no	-403
ord	-404
▁did	-405
ade	-406
vel	-407
form	-408
ub	-409
▁how	-410
ild	-411
▁fl	-412
▁pre	-413
▁hel	-414
ents	-415
ors	-416
▁am	-417
ater	-418
nder	-419
ition	-420
fter	-421
ful	-422
▁imp	-423
▁see	-424
▁You	-425
▁tw	-426
▁help	-427
▁very	-428
▁day	-429
ens	-430
ople	-431
urn	-432
ang	-433
▁make	-434
int	-435
▁too	-436
ren	-437
▁rec	-438
▁des	-439
ked	-440
rough	-441
ob	-442
irst	-443
▁co	-444
sel	-445
?"	-446
ish	-447
▁every	-448
ious	-449
,"	-450
▁only	-451
▁br	-452
▁people	-453
▁then	-454
ft	-455
▁“	-456
we	-457
▁through	-458
ause	-459
▁Wh	-460
▁play	-461
▁down	-462
ough	-463
igh	-464
ory	-465
ning	-466
▁its	-467
fore	-468
hen	-469
▁bu	-470
▁bet	-471
ght	-472
▁comm	-473
ks	-474
anc	-475
▁em	-476
▁first	-477
▁may	-478
vers	-479
ise	-480
▁way	-481
▁good	-482
nds	-483
▁-	-484
▁under	-485
▁gr	-486
way	-487
ons	-488
ool	-489
rent	-490
uch	-491
omet	-492
ife	-493
▁even	-494
▁ke	-495
▁well	-496
▁now	-497
▁two	-498
▁happ	-499
▁most	-500
▁If	-501
ual	-502
▁As	-503
▁prov	-504
▁use	-505
▁again	-506
▁add	-507
lic	-508
ian	-509
▁act	-510
clud	-511
row	-512
▁start	-513
▁don	-514
▁should	-515
iss	-516
ittle	-517
ward	-518
ting	-519
▁–	-520
▁rem	-521
ect	-522
▁ind	-523
▁car	-524
ating	-525
▁after	-526
get	-527
li	-528
ments	-529
▁where	-530
xt	-531
▁And	-532
▁ph	-533
▁around	-534
▁But	-535
).	-536
oth	-537
ates	-538
▁po	-539
other	-540
▁these	-541
▁right	-542
les	-543
▁serv	-544
▁dif	-545
aking	-546
▁many	-547
▁think	-548
fect	-549
tern	-550
▁made	-551
▁much	-552
▁little	-553
▁cons	-554
▁before	-555
amp	-556
▁find	-557
ath	-558
mer	-559
▁long	-560
old	-561
▁col	-562
self	-563
lect	-564
▁Re	-565
ict	-566
▁An	-567
ange	-568
▁produ	-569
▁because	-570
gr	-571
▁includ	-572
▁home	-573
ph	-574
▁own	-575
▁supp	-576
▁gu	-577
▁ins	-578
▁take	-579
ert	-580
▁dec	-581
▁acc	-582
ull	-583
ities	-584
ave	-585
ell	-586
ject	-587
▁here	-588
ices	-589
cial	-590
air	-591
▁somet	-592
▁great	-593
oss	-594
ower	-595
ible	-596
enc	-597
▁rep	-598
▁frie	-599
▁years	-600
led	-601
▁On	-602
ific	-603
hes	-604
▁fin	-605
▁bus	-606
iness	-607
▁ent	-608
▁fo	-609
ont	-610
ied	-611
day	-612
▁sy	-613
▁pers	-614
▁inv	-615
ble	-616
ited	-617
▁feel	-618
als	-619
pect	-620
ty	-621
▁rel	-622
▁mom	-623
▁exper	-624
▁reg	-625
▁sec	-626
ci	-627
▁che	-628
▁ev	-629
iew	-630
▁'	-631
▁inc	-632
▁set	-633
ures	-634
▁stud	-635
...	-636
▁loc	-637
▁ass	-638
aw	-639
ys	-640
▁bel	-641
alk	-642
▁att	-643
▁call	-644
▁sl	-645
▁op	-646
▁read	-647
▁best	-648
▁sur	-649
any	-650
gan	-651
ought	-652
▁hand	-653
▁inst	-654
ased	-655
▁gl	-656
bs	-657
▁being	-658
▁such	-659
▁wr	-660
▁Ne	-661
▁big	-662
ouse	-663
▁going	-664
ather	-665
▁life	-666
▁high	-667
ility	-668
▁fam	-669
ms	-670
ular	-671
▁There	-672
ock	-673
ank	-674
▁still	-675
▁diffe	-676
ax	-677
▁does	-678
▁str	-679
ared	-680
ways	-681
▁min	-682
olog	-683
▁Se	-684
▁show	-685
arn	-686
pped	-687
uring	-688
▁each	-689
▁something	-690
be	-691
▁found	-692
gg	-693
its	-694
llow	-695
▁Un	-696
▁head	-697
▁sk	-698
▁person	-699
▁end	-700
ational	-701
▁those	-702
up	-703
omm	-704
▁world	-705
stem	-706
▁inte	-707
▁Al	-708
▁inform	-709
▁For	-710
az	-711
atch	-712
▁while	-713
ually	-714
thing	-715
ving	-716
ident	-717
ah	-718
▁fun	-719
▁cr	-720
▁used	-721
ros	-722
velop	-723
▁cre	-724
▁bo	-725
ative	-726
▁real	-727
▁care	-728
▁mon	-729
ner	-730
hip	-731
▁love	-732
ics	-733
▁away	-734
ix	-735
ience	-736
▁say	-737
▁cle	-738
▁things	-739
ts	-740
▁So	-741
▁requ	-742
▁really	-743
ener	-744
arch	-745
▁didn	-746
▁business	-747
▁sim	-748
▁got	-749
▁De	-750
▁open	-751
▁ey	-752
arm	-753
ness	-754
▁pres	-755
▁vis	-756
▁turn	-757
▁design	-758
▁always	-759
▁cur	-760
),	-761
▁let	-762
▁put	-763
▁place	-764
ince	-765
▁av	-766
▁One	-767
read	-768
ved	-769
▁When	-770
▁Lily	-771
▁both	-772
▁tri	-773
▁last	-774
ng	-775
▁thought	-776
alth	-777
chool	-778
▁Be	-779
▁never	-780
ient	-781
pr	-782
ale	-783
akes	-784
▁ret	-785
▁few	-786
▁Fr	-787
▁come	-788
!"	-789
ork	-790
▁mark	-791
rest	-792
▁child	-793
irl	-794
▁room	-795
▁book	-796
cept	-797
▁Pro	-798
▁trans	-799
▁lot	-800
▁run	-801
▁mod	-802
▁different	-803
▁met	-804
ple	-805
▁wee	-806
▁saw	-807
▁How	-808
▁comple	-809
erm	-810
ying	-811
uck	-812
▁det	-813
▁system	-814
▁small	-815
▁information	-816
imes	-817
▁same	-818
▁eas	-819
ody	-820
▁develop	-821
▁num	-822
▁disc	-823
▁inter	-824
ces	-825
▁mem	-826
▁Sh	-827
ets	-828
io	-829
ason	-830
▁keep	-831
ced	-832
▁exp	-833
der	-834
ives	-835
▁sub	-836
my	-837
▁adv	-838
iting	-839
ars	-840
▁wanted	-841
▁sure	-842
ash	-843
▁follow	-844
▁cour	-845
ween	-846
▁list	-847
▁water	-848
und	-849
elt	-850
chn	-851
line	-852
ric	-853
▁old	-854
▁med	-855
ters	-856
ross	-857
oved	-858
ized	-859
▁asked	-860
▁went	-861
▁product	-862
ize	-863
lease	-864
ffect	-865
▁point	-866
oun	-867
▁What	-868
▁plan	-869
▁looked	-870
▁Ar	-871
▁provid	-872
gram	-873
ene	-874
▁happy	-875
▁lead	-876
ages	-877
▁tra	-878
ues	-879
ines	-880
land	-881
▁&	-882
▁bro	-883
▁better	-884
▁between	-885
ustom	-886
▁art	-887
iving	-888
ute	-889
less	-890
here	-891
▁ide	-892
ired	-893
▁sign	-894
▁pur	-895
▁lar	-896
▁pol	-897
▁import	-898
uc	-899
▁ser	-900
ps	-901
▁count	-902
▁another	-903
irect	-904
▁must	-905
ins	-906
▁ed	-907
▁form	-908
▁rest	-909
▁cor	-910
▁hard	-911
ered	-912
▁next	-913
ional	-914
▁free	-915
iet	-916
▁light	-917
▁.	-918
▁$	-919
▁three	-920
▁unt	-921
▁top	-922
ird	-923
ten	-924
▁support	-925
▁ear	-926
▁aut	-927
cc	-928
▁family	-929
aut	-930
ata	-931
▁Le	-932
ves	-933
▁Cl	-934
ished	-935
▁might	-936
▁girl	-937
▁without	-938
▁process	-939
▁commun	-940
ted	-941
ering	-942
▁expl	-943
stand	-944
▁pass	-945
ality	-946
▁All	-947
hat	-948
oad	-949
▁stand	-950
gether	-951
▁together	-952
▁ext	-953
▁char	-954
▁sw	-955
▁poss	-956
▁dri	-957
▁prof	-958
▁That	-959
ever	-960
▁contin	-961
▁Ad	-962
▁pub	-963
▁New	-964
ug	-965
▁post	-966
ature	-967
▁build	-968
▁team	-969
▁friends	-970
▁ob	-971
▁took	-972
▁ref	-973
▁came	-974
ants	-975
▁At	-976
▁sol	-977
▁pat	-978
▁give	-979
rib	-980
▁Jo	-981
▁felt	-982
▁custom	-983
▁seem	-984
▁el	-985
▁house	-986
ling	-987
▁val	-988
ract	-989
▁using	-990
▁conf	-991
ivers	-992
▁program	-993
▁appro	-994
▁dist	-995
▁God	-996
ched	-997
▁eyes	-998
ern	-999
▁avail	-1000
aining	-1001
▁gener	-1002
▁quest	-1003
▁techn	-1004
ger	-1005
▁until	-1006
▁able	-1007
ised	-1008
▁school	-1009
▁allow	-1010
ution	-1011
▁looking	-1012
ier	-1013
▁upon	-1014
▁started	-1015
▁With	-1016
▁tell	-1017
▁fact	-1018
▁beh	-1019
▁kne	-1020
▁To	-1021
side	-1022
▁Br	-1023
br	-1024
▁var	-1025
▁main	-1026
▁ty	-1027
ention	-1028
ump	-1029
▁cent	-1030
▁interest	-1031
▁resp	-1032
▁important	-1033
ically	-1034
ames	-1035
▁left	-1036
ately	-1037
ense	-1038
com	-1039
▁night	-1040
ield	-1041
orn	-1042
▁month	-1043
view	-1044
▁belie	-1045
reen	-1046
▁My	-1047
oice	-1048
▁Once	-1049
▁dr	-1050
oney	-1051
▁second	-1052
▁face	-1053
ital	-1054
▁company	-1055
▁pri	-1056
▁opt	-1057
▁Tr	-1058
▁Is	-1059
▁partic	-1060
erg	-1061
▁special	-1062
▁full	-1063
ream	-1064
ined	-1065
ton	-1066
que	-1067
▁result	-1068
▁wa	-1069
man	-1070
▁since	-1071
▁health	-1072
▁available	-1073
▁def	-1074
▁word	-1075
▁His	-1076
▁experience	-1077
ology	-1078
▁wom	-1079
▁_	-1080
▁power	-1081
▁grou	-1082
▁Chr	-1083
▁during	-1084
joy	-1085
▁pay	-1086
▁side	-1087
▁market	-1088
▁project	-1089
▁ho	-1090
▁learn	-1091
bers	-1092
ural	-1093
ists	-1094
▁proble	-1095
▁mus	-1096
▁organ	-1097
▁Sp	-1098
▁number	-1099
ained	-1100
▁mat	-1101
ruct	-1102
▁Q	-1103
▁bre	-1104
aring	-1105
▁service	-1106
▁thing	-1107
ware	-1108
meric	-1109
na	-1110
me	-1111
▁ve	-1112
▁class	-1113
▁says	-1114
▁why	-1115
oor	-1116
▁kind	-1117
ains	-1118
▁cond	-1119
▁days	-1120
▁against	-1121
▁fil	-1122
▁[	-1123
outh	-1124
▁less	-1125
rol	-1126
▁sit	-1127
▁understand	-1128
▁state	-1129
▁rece	-1130
▁grow	-1131
▁data	-1132
▁hum	-1133
▁food	-1134
▁direct	-1135
uss	-1136
▁Pl	-1137
▁opp	-1138
▁mind	-1139
▁door	-1140
▁ca	-1141
pping	-1142
▁friend	-1143
▁enough	-1144
▁including	-1145
▁i	-1146
▁Com	-1147
ret	-1148
▁making	-1149
▁Z	-1150
▁within	-1151
osed	-1152
ided	-1153
▁effect	-1154
▁hour	-1155
▁meet	-1156
to	-1157
▁cert	-1158
▁Te	-1159
The	-1160
▁spec	-1161
ently	-1162
▁pain	-1163
co	-1164
els	-1165
▁Americ	-1166
▁iss	-1167
You	-1168
▁name	-1169
▁Bl	-1170
▁ever	-1171
orts	-1172
▁perform	-1173
▁level	-1174
▁body	-1175
▁enjoy	-1176
▁quick	-1177
▁area	-1178
▁Ex	-1179
vern	-1180
▁told	-1181
▁After	-1182
ably	-1183
▁cost	-1184
▁Tim	-1185
▁beaut	-1186
▁air	-1187
aj	-1188
▁prom	-1189
▁knew	-1190
**	-1191
▁ste	-1192
▁order	-1193
▁provide	-1194
ened	-1195
ards	-1196
▁large	-1197
▁inf	-1198
▁proper	-1199
▁pa	-1200
▁course	-1201
iled	-1202
ember	-1203
▁near	-1204
med	-1205
▁eng	-1206
ploy	-1207
ortun	-1208
▁bed	-1209
▁job	-1210
▁No	-1211
ision	-1212
▁children	-1213
▁along	-1214
▁incre	-1215
▁conc	-1216
▁Ind	-1217
▁done	-1218
con	-1219
▁wind	-1220
ived	-1221
err	-1222
▁far	-1223
den	-1224
▁exc	-1225
room	-1226
▁called	-1227
▁dra	-1228
▁pos	-1229
▁working	-1230
ott	-1231
▁fac	-1232
ery	-1233
ior	-1234
▁talk	-1235
▁today	-1236
▁game	-1237
▁week	-1238
work	-1239
arent	-1240
▁leg	-1241
▁mean	-1242
ients	-1243
▁est	-1244
▁Do	-1245
▁fore	-1246
▁suc	-1247
▁Or	-1248
▁services	-1249
▁move	-1250
▁sound	-1251
▁money	-1252
ny	-1253
▁prote	-1254
▁having	-1255
▁sing	-1256
amed	-1257
▁Christ	-1258
gin	-1259
▁online	-1260
▁bit	-1261
▁view	-1262
rence	-1263
▁tre	-1264
ane	-1265
ready	-1266
▁creat	-1267
▁Our	-1268
▁invest	-1269
▁test	-1270
wards	-1271
▁equ	-1272
ands	-1273
▁webs	-1274
▁hold	-1275
▁past	-1276
▁Ben	-1277
▁though	-1278
att	-1279
▁boy	-1280
▁oper	-1281
▁check	-1282
▁change	-1283
▁Her	-1284
▁rese	-1285
▁pract	-1286
▁current	-1287
ffic	-1288
ats	-1289
▁doing	-1290
ids	-1291
▁return	-1292
▁complete	-1293
▁access	-1294
▁chang	-1295
▁walk	-1296
▁es	-1297
iful	-1298
utes	-1299
by	-1300
▁mov	-1301
▁Mar	-1302
aster	-1303
▁win	-1304
▁across	-1305
ator	-1306
▁Con	-1307
raph	-1308
▁jo	-1309
▁pop	-1310
▁present	-1311
ism	-1312
end	-1313
▁phot	-1314
▁already	-1315
▁stay	-1316
▁others	-1317
▁Ph	-1318
▁try	-1319
▁dem	-1320
▁bas	-1321
ral	-1322
▁Not	-1323
ik	-1324
ified	-1325
▁times	-1326
tend	-1327
▁men	-1328
▁anything	-1329
ged	-1330
iven	-1331
▁cou	-1332
ured	-1333
used	-1334
ider	-1335
▁pick	-1336
▁heart	-1337
▁sal	-1338
ina	-1339
▁case	-1340
iron	-1341
▁prev	-1342
▁Can	-1343
▁wond	-1344
▁Gr	-1345
▁soft	-1346
pend	-1347
▁getting	-1348
▁profess	-1349
ency	-1350
ium	-1351
▁cap	-1352
hn	-1353
▁const	-1354
▁four	-1355
▁addition	-1356
▁public	-1357
part	-1358
▁often	-1359
iversity	-1360
▁offer	-1361
▁miss	-1362
sh	-1363
bo	-1364
▁once	-1365
▁Tom	-1366
▁law	-1367
iver	-1368
▁needs	-1369
▁inside	-1370
▁event	-1371
▁expect	-1372
most	-1373
ither	-1374
▁park	-1375
let	-1376
veral	-1377
ories	-1378
ivid	-1379
▁easy	-1380
▁everything	-1381
▁Col	-1382
alf	-1383
▁These	-1384
▁dev	-1385
ateg	-1386
inal	-1387
▁local	-1388
▁hands	-1389
▁Co	-1390
ike	-1391
▁Then	-1392
▁ann	-1393
▁repl	-1394
▁become	-1395
ases	-1396
▁success	-1397
▁group	-1398
▁perfect	-1399
▁loved	-1400
ills	-1401
▁close	-1402
▁possible	-1403
ley	-1404
ung	-1405
ots	-1406
ows	-1407
por	-1408
the	-1409
▁ask	-1410
illed	-1411
▁applic	-1412
▁students	-1413
▁quality	-1414
▁intern	-1415
▁visit	-1416
ries	-1417
▁front	-1418
ury	-1419
▁makes	-1420
▁May	-1421
▁mar	-1422
eng	-1423
▁la	-1424
▁outside	-1425
▁bene	-1426
▁ans	-1427
illion	-1428
port	-1429
▁live	-1430
rew	-1431
ising	-1432
lection	-1433
uff	-1434
load	-1435
ush	-1436
▁activ	-1437
▁young	-1438
▁someone	-1439
▁clean	-1440
▁conne	-1441
▁beautiful	-1442
▁impro	-1443
ried	-1444
▁behind	-1445
▁short	-1446
▁site	-1447
ape	-1448
▁‘	-1449
ample	-1450
▁Me	-1451
▁seen	-1452
▁control	-1453
ability	-1454
▁treat	-1455
orth	-1456
▁line	-1457
agement	-1458
▁hot	-1459
▁soon	-1460
▁foc	-1461
augh	-1462
▁certain	-1463
cent	-1464
ination	-1465
▁Now	-1466
▁turned	-1467
▁fav	-1468
app	-1469
▁least	-1470
▁story	-1471
ode	-1472
ored	-1473
ential	-1474
▁John	-1475
▁ran	-1476
ization	-1477
▁indust	-1478
▁elect	-1479
▁several	-1480
▁hist	-1481
▁clear	-1482
▁idea	-1483
▁products	-1484
▁mor	-1485
▁smiled	-1486
itions	-1487
▁red	-1488
▁tem	-1489
▁step	-1490
!!	-1491
ique	-1492
aterial	-1493
▁Pr	-1494
▁pot	-1495
ides	-1496
▁employ	-1497
itc	-1498
▁dro	-1499
▁report	-1500
▁means	-1501
▁sat	-1502
▁strong	-1503
itive	-1504
▁pull	-1505
▁#	-1506
ued	-1507
aces	-1508
▁ce	-1509
▁couldn	-1510
ney	-1511
▁wasn	-1512
▁Sc	-1513
aps	-1514
▁heard	-1515
▁decided	-1516
not	-1517
hor	-1518
ances	-1519
▁table	-1520
▁Res	-1521
▁Man	-1522
▁detail	-1523
▁—	-1524
▁yet	-1525
of	-1526
▁occ	-1527
▁low	-1528
.,	-1529
ift	-1530
▁share	-1531
▁bring	-1532
▁won	-1533
▁website	-1534
fully	-1535
▁US	-1536
ron	-1537
▁doesn	-1538
▁personal	-1539
▁watch	-1540
▁bad	-1541
ration	-1542
▁individ	-1543
▁pie	-1544
It	-1545
▁trad	-1546
oud	-1547
ister	-1548
ief	-1549
▁wall	-1550
▁account	-1551
▁record	-1552
▁comes	-1553
▁|	-1554
icle	-1555
aim	-1556
▁sho	-1557
▁named	-1558
▁later	-1559
▁govern	-1560
▁Comm	-1561
ER	-1562
▁believe	-1563
▁city	-1564
▁create	-1565
▁needed	-1566
▁based	-1567
▁reason	-1568
▁music	-1569
▁Am	-1570
▁Fl	-1571
▁lim	-1572
▁moment	-1573
▁However	-1574
▁gave	-1575
▁cut	-1576
▁dog	-1577
yle	-1578
▁trying	-1579
lf	-1580
▁minutes	-1581
▁nothing	-1582
aken	-1583
▁sun	-1584
ok	-1585
▁Car	-1586
▁di	-1587
ann	-1588
What	-1589
ining	-1590
▁else	-1591
oci	-1592
▁contact	-1593
▁sle	-1594
▁vide	-1595
▁stop	-1596
▁fur	-1597
▁buy	-1598
oose	-1599
▁space	-1600
▁pict	-1601
ead	-1602
oint	-1603
▁black	-1604
▁wal	-1605
▁Eng	-1606
▁fut	-1607
▁opportun	-1608
▁research	-1609
▁adm	-1610
oon	-1611
▁everyone	-1612
▁community	-1613
▁hours	-1614
▁pack	-1615
▁tried	-1616
▁ground	-1617
▁deal	-1618
▁material	-1619
▁individual	-1620
fort	-1621
yl	-1622
viron	-1623
▁actually	-1624
ajor	-1625
▁par	-1626
▁break	-1627
▁benef	-1628
bed	-1629
cu	-1630
ster	-1631
fer	-1632
▁almost	-1633
ote	-1634
▁sil	-1635
▁z	-1636
▁Cent	-1637
▁ele	-1638
▁mess	-1639
rap	-1640
▁human	-1641
▁mil	-1642
▁hope	-1643
ached	-1644
UR	-1645
▁fall	-1646
▁mag	-1647
▁Every	-1648
irt	-1649
▁problem	-1650
▁living	-1651
We	-1652
▁members	-1653
ones	-1654
▁country	-1655
▁taking	-1656
iter	-1657
aff	-1658
▁include	-1659
cially	-1660
atures	-1661
lling	-1662
wer	-1663
▁non	-1664
▁playing	-1665
▁whole	-1666
▁mult	-1667
cri	-1668
unch	-1669
▁cover	-1670
pos	-1671
▁bar	-1672
▁key	-1673
▁coming	-1674
reet	-1675
▁known	-1676
▁given	-1677
▁store	-1678
▁Ste	-1679
light	-1680
▁above	-1681
▁voice	-1682
▁box	-1683
▁specific	-1684
▁Sam	-1685
ians	-1686
▁words	-1687
▁nice	-1688
▁fire	-1689
▁war	-1690
▁hair	-1691
▁dark	-1692
▁et	-1693
▁tou	-1694
▁quickly	-1695
▁future	-1696
uro	-1697
ety	-1698
▁prob	-1699
ec	-1700
use	-1701
▁net	-1702
▁Mr	-1703
▁swe	-1704
cle	-1705
▁hu	-1706
,”	-1707
ilt	-1708
▁building	-1709
▁begin	-1710
ctor	-1711
▁held	-1712
▁particular	-1713
▁development	-1714
ienc	-1715
conom	-1716
▁Your	-1717
▁white	-1718
▁himself	-1719
▁pret	-1720
iously	-1721
▁camp	-1722
▁hig	-1723
▁mot	-1724
oring	-1725
▁began	-1726
▁land	-1727
▁field	-1728
eth	-1729
▁half	-1730
▁invol	-1731
▁please	-1732
▁social	-1733
over	-1734
▁question	-1735
▁floor	-1736
anks	-1737
▁safe	-1738
▁require	-1739
urs	-1740
▁educ	-1741
▁press	-1742
▁vers	-1743
▁prep	-1744
selves	-1745
▁leave	-1746
▁parent	-1747
▁bird	-1748
▁From	-1749
▁page	-1750
▁ra	-1751
urity	-1752
▁offic	-1753
aced	-1754
ption	-1755
▁orig	-1756
▁ball	-1757
▁anim	-1758
▁University	-1759
▁Some	-1760
▁typ	-1761
▁major	-1762
▁ready	-1763
acy	-1764
ply	-1765
▁Just	-1766
vironment	-1767
oke	-1768
ony	-1769
▁example	-1770
ission	-1771
Th	-1772
lish	-1773
atic	-1774
▁review	-1775
ording	-1776
rown	-1777
▁below	-1778
▁compan	-1779
▁price	-1780
▁En	-1781
▁mid	-1782
▁ens	-1783
▁tool	-1784
itting	-1785
osp	-1786
▁priv	-1787
▁either	-1788
where	-1789
▁sum	-1790
ening	-1791
▁App	-1792
▁early	-1793
mb	-1794
▁clos	-1795
ai	-1796
▁pretty	-1797
▁quite	-1798
fact	-1799
▁ident	-1800
▁American	-1801
ledge	-1802
▁comb	-1803
▁mother	-1804
▁months	-1805
▁anal	-1806
▁,	-1807
▁link	-1808
▁news	-1809
▁purch	-1810
▁enc	-1811
▁Su	-1812
ee	-1813
iety	-1814
ify	-1815
▁ris	-1816
▁fast	-1817
▁deep	-1818
▁compet	-1819
▁redu	-1820
▁appear	-1821
▁super	-1822
atural	-1823
pecially	-1824
▁Inst	-1825
▁energ	-1826
ips	-1827
de	-1828
▁discuss	-1829
▁phone	-1830
ites	-1831
ilities	-1832
ara	-1833
▁Des	-1834
icult	-1835
▁forward	-1836
▁women	-1837
▁cook	-1838
▁single	-1839
▁item	-1840
▁port	-1841
▁surpr	-1842
ners	-1843
▁search	-1844
lex	-1845
ogn	-1846
▁range	-1847
▁manag	-1848
urch	-1849
itchen	-1850
▁sad	-1851
▁vol	-1852
▁taken	-1853
rodu	-1854
▁office	-1855
ograph	-1856
▁questions	-1857
▁travel	-1858
uly	-1859
▁sn	-1860
▁charac	-1861
▁five	-1862
▁matter	-1863
come	-1864
irm	-1865
ze	-1866
utions	-1867
▁foot	-1868
▁respons	-1869
▁entire	-1870
▁hear	-1871
une	-1872
▁meth	-1873
▁season	-1874
▁deli	-1875
▁diff	-1876
▁tot	-1877
acks	-1878
▁amount	-1879
▁connect	-1880
▁slow	-1881
▁value	-1882
▁X	-1883
▁rele	-1884
though	-1885
iod	-1886
▁cir	-1887
▁ant	-1888
head	-1889
hy	-1890
▁works	-1891
▁feeling	-1892
▁wood	-1893
▁chall	-1894
▁sour	-1895
icy	-1896
▁Che	-1897
▁morning	-1898
▁wonder	-1899
▁ess	-1900
ulation	-1901
umb	-1902
▁further	-1903
▁following	-1904
IN	-1905
▁focus	-1906
ches	-1907
▁favor	-1908
▁Fe	-1909
▁Comp	-1910
▁woman	-1911
▁fre	-1912
anced	-1913
▁cal	-1914
▁road	-1915
▁among	-1916
ges	-1917
idence	-1918
ded	-1919
▁yourself	-1920
ffe	-1921
uation	-1922
▁Em	-1923
▁tas	-1924
dle	-1925
▁simple	-1926
▁self	-1927
▁energy	-1928
ule	-1929
ison	-1930
▁government	-1931
resent	-1932
overed	-1933
▁phys	-1934
▁probably	-1935
▁address	-1936
ference	-1937
▁dou	-1938
ino	-1939
▁hur	-1940
▁While	-1941
▁anyone	-1942
▁industry	-1943
book	-1944
ggest	-1945
ilar	-1946
▁dam	-1947
▁comput	-1948
▁install	-1949
▁sent	-1950
for	-1951
aur	-1952
▁comfort	-1953
▁paper	-1954
aving	-1955
▁recomm	-1956
▁content	-1957
lished	-1958
asing	-1959
▁offers	-1960
▁relations	-1961
ma	-1962
ental	-1963
▁features	-1964
▁type	-1965
▁wide	-1966
▁age	-1967
airs	-1968
ively	-1969
▁ago	-1970
▁whether	-1971
▁running	-1972
▁amaz	-1973
hers	-1974
▁looks	-1975
▁companies	-1976
▁protect	-1977
▁environment	-1978
▁lay	-1979
▁Sy	-1980
▁Dr	-1981
▁By	-1982
▁skin	-1983
▁Wor	-1984
▁method	-1985
▁card	-1986
▁Ro	-1987
▁Cont	-1988
▁consider	-1989
▁video	-1990
itch	-1991
enn	-1992
▁tax	-1993
▁longer	-1994
▁true	-1995
ibility	-1996
▁suggest	-1997
▁million	-1998
▁cra	-1999
▁excited	-2000
▁arri	-2001
mber	-2002
▁Pe	-2003
cell	-2004
aching	-2005
▁Intern	-2006
▁Timmy	-2007
▁myself	-2008
▁results	-2009
▁author	-2010
▁study	-2011
▁sto	-2012
▁Med	-2013
▁town	-2014
ume	-2015
▁accept	-2016
▁bott	-2017
▁common	-2018
▁simply	-2019
orry	-2020
urance	-2021
lement	-2022
ili	-2023
▁due	-2024
▁exist	-2025
▁towards	-2026
▁technology	-2027
itical	-2028
resh	-2029
▁cult	-2030
ding	-2031
▁breat	-2032
▁compl	-2033
ball	-2034
▁cell	-2035
▁email	-2036
▁Ab	-2037
▁lost	-2038
▁Gu	-2039
▁*	-2040
▁customers	-2041
▁Don	-2042
▁training	-2043
▁remember	-2044
▁father	-2045
▁especially	-2046
▁aff	-2047
▁recommend	-2048
itted	-2049
rie	-2050
ires	-2051
▁Euro	-2052
ises	-2053
▁became	-2054
▁death	-2055
▁inde	-2056
▁tour	-2057
▁speak	-2058
▁tree	-2059
ler	-2060
▁walked	-2061
▁Je	-2062
▁various	-2063
▁experienc	-2064
▁difficult	-2065
nding	-2066
▁eff	-2067
▁dig	-2068
▁blood	-2069
▁period	-2070
▁rather	-2071
No	-2072
▁claim	-2073
aught	-2074
▁econom	-2075
af	-2076
▁eat	-2077
chie	-2078
▁professional	-2079
▁rock	-2080
▁Ke	-2081
▁exam	-2082
▁kids	-2083
astic	-2084
ples	-2085
▁size	-2086
asure	-2087
omes	-2088
go	-2089
ishing	-2090
▁ple	-2091
▁fig	-2092
play	-2093
▁color	-2094
▁improve	-2095
▁Ass	-2096
irit	-2097
▁sleep	-2098
▁mach	-2099
▁necess	-2100
▁kitchen	-2101
▁Please	-2102
▁abs	-2103
▁United	-2104
▁ter	-2105
▁blog	-2106
▁added	-2107
medi	-2108
▁provides	-2109
▁select	-2110
oid	-2111
par	-2112
▁Im	-2113
yn	-2114
▁nod	-2115
▁aud	-2116
▁flow	-2117
▁Serv	-2118
▁required	-2119
▁cred	-2120
▁feet	-2121
▁tal	-2122
▁Will	-2123
▁kn	-2124
▁property	-2125
▁history	-2126
▁worked	-2127
iday	-2128
abor	-2129
AT	-2130
▁financ	-2131
▁ways	-2132
▁position	-2133
▁party	-2134
▁Tw	-2135
▁isn	-2136
▁issues	-2137
ging	-2138
▁Per	-2139
▁areas	-2140
ables	-2141
▁management	-2142
▁determ	-2143
▁warm	-2144
ruction	-2145
lege	-2146
ON	-2147
▁wrong	-2148
uth	-2149
uct	-2150
▁Go	-2151
arden	-2152
ring	-2153
▁dress	-2154
▁Fin	-2155
ensive	-2156
▁Bo	-2157
▁knowledge	-2158
ication	-2159
.'	-2160
roll	-2161
▁fail	-2162
rought	-2163
--	-2164
ES	-2165
▁takes	-2166
▁cool	-2167
▁dest	-2168
pper	-2169
iced	-2170
▁however	-2171
▁unique	-2172
▁writing	-2173
▁cat	-2174
antly	-2175
▁cannot	-2176
angu	-2177
▁Qu	-2178
imate	-2179
▁web	-2180
▁staff	-2181
▁engine	-2182
▁Ed	-2183
▁parents	-2184
vent	-2185
▁Let	-2186
AR	-2187
▁hon	-2188
icated	-2189
ression	-2190
▁collect	-2191
▁aw	-2192
▁natural	-2193
▁games	-2194
▁kept	-2195
▁strateg	-2196
▁sense	-2197
▁assist	-2198
▁opened	-2199
▁dream	-2200
▁percent	-2201
▁log	-2202
▁jour	-2203
▁relationship	-2204
ially	-2205
▁Min	-2206
eral	-2207
▁eye	-2208
▁stra	-2209
▁played	-2210
ls	-2211
▁series	-2212
▁media	-2213
▁books	-2214
▁del	-2215
....	-2216
▁exact	-2217
inc	-2218
▁Aust	-2219
▁problems	-2220
▁particip	-2221
▁Ge	-2222
ana	-2223
rict	-2224
▁host	-2225
▁seemed	-2226
URL	-2227
▁coll	-2228
▁recogn	-2229
▁text	-2230
aves	-2231
▁shall	-2232
▁coun	-2233
erc	-2234
▁performance	-2235
vert	-2236
▁Europe	-2237
▁created	-2238
▁Cal	-2239
▁couple	-2240
▁touch	-2241
▁sens	-2242
▁choose	-2243
▁Gl	-2244
▁wat	-2245
▁drive	-2246
gged	-2247
▁fight	-2248
▁download	-2249
▁six	-2250
▁lear	-2251
▁achie	-2252
▁ful	-2253
▁third	-2254
▁cop	-2255
▁agree	-2256
aby	-2257
denly	-2258
▁drink	-2259
▁hy	-2260
▁liked	-2261
▁hor	-2262
▁wait	-2263
▁lat	-2264
▁lo	-2265
▁likely	-2266
▁fit	-2267
▁finally	-2268
▁upd	-2269
He	-2270
AN	-2271
▁respect	-2272
▁happened	-2273
▁events	-2274
▁blue	-2275
face	-2276
gest	-2277
itten	-2278
ators	-2279
▁designed	-2280
▁docu	-2281
▁provided	-2282
▁thinking	-2283
ival	-2284
▁City	-2285
▁signific	-2286
▁Sm	-2287
gle	-2288
idge	-2289
▁oil	-2290
▁squ	-2291
ama	-2292
▁smile	-2293
▁fund	-2294
▁function	-2295
ufact	-2296
▁late	-2297
▁init	-2298
▁request	-2299
son	-2300
obile	-2301
▁dead	-2302
ades	-2303
▁pan	-2304
tain	-2305
▁print	-2306
▁Here	-2307
pro	-2308
ha	-2309
▁bag	-2310
ming	-2311
king	-2312
irth	-2313
▁norm	-2314
▁usually	-2315
▁defin	-2316
▁subject	-2317
▁draw	-2318
ification	-2319
▁answer	-2320
▁El	-2321
▁Mark	-2322
kay	-2323
▁extra	-2324
ned	-2325
rect	-2326
ady	-2327
▁wants	-2328
▁term	-2329
▁Pa	-2330
▁attention	-2331
▁lives	-2332
eter	-2333
▁veh	-2334
Yes	-2335
ude	-2336
▁South	-2337
▁continue	-2338
▁bal	-2339
▁Sec	-2340
▁lif	-2341
▁song	-2342
▁similar	-2343
▁fa	-2344
▁concern	-2345
▁trust	-2346
▁popular	-2347
▁systems	-2348
▁opportunity	-2349
▁brought	-2350
▁Jes	-2351
▁security	-2352
▁green	-2353
▁estab	-2354
▁resour	-2355
▁Rep	-2356
▁Count	-2357
iff	-2358
▁Har	-2359
▁regard	-2360
bit	-2361
ille	-2362
▁ideas	-2363
▁Jan	-2364
▁Even	-2365
anger	-2366
itional	-2367
▁represent	-2368
▁chance	-2369
▁object	-2370
▁glass	-2371
time	-2372
▁track	-2373
▁teac	-2374
apt	-2375
iny	-2376
▁instead	-2377
▁**	-2378
▁learning	-2379
▁higher	-2380
▁hit	-2381
OR	-2382
iding	-2383
haps	-2384
▁gone	-2385
reme	-2386
▁includes	-2387
▁arm	-2388
dy	-2389
▁worth	-2390
▁dad	-2391
▁alone	-2392
▁Bar	-2393
▁hop	-2394
avy	-2395
empt	-2396
▁Why	-2397
▁options	-2398
▁etc	-2399
▁Part	-2400
ese	-2401
▁base	-2402
▁stri	-2403
era	-2404
▁imag	-2405
▁moved	-2406
▁rad	-2407
▁Dis	-2408
▁easily	-2409
▁themselves	-2410
▁Jack	-2411
obal	-2412
▁weeks	-2413
▁struct	-2414
▁ensure	-2415
▁software	-2416
▁ill	-2417
ules	-2418
roud	-2419
ux	-2420
▁North	-2421
▁cold	-2422
▁style	-2423
▁Max	-2424
▁immedi	-2425
▁model	-2426
▁amazing	-2427
▁details	-2428
▁risk	-2429
▁cry	-2430
▁round	-2431
▁throughout	-2432
▁final	-2433
▁favorite	-2434
▁cross	-2435
▁inn	-2436
▁ut	-2437
cing	-2438
izing	-2439
▁impact	-2440
▁seems	-2441
zy	-2442
▁hol	-2443
".	-2444
▁fix	-2445
▁Pre	-2446
▁choice	-2447
iam	-2448
enty	-2449
▁date	-2450
▁changes	-2451
clus	-2452
▁State	-2453
▁click	-2454
▁built	-2455
▁ones	-2456
▁World	-2457
hel	-2458
olution	-2459
▁mount	-2460
▁received	-2461
lebr	-2462
▁appe	-2463
itor	-2464
ram	-2465
▁reading	-2466
▁tar	-2467
▁Ac	-2468
▁infl	-2469
val	-2470
▁learned	-2471
ights	-2472
▁brand	-2473
▁customer	-2474
▁financial	-2475
▁sorry	-2476
▁Park	-2477
▁stopped	-2478
▁action	-2479
▁deb	-2480
▁receive	-2481
▁/	-2482
▁mix	-2483
▁consum	-2484
rop	-2485
▁itself	-2486
▁issue	-2487
atur	-2488
▁application	-2489
apter	-2490
▁path	-2491
▁regular	-2492
gu	-2493
▁window	-2494
iple	-2495
▁autom	-2496
▁associ	-2497
That	-2498
▁practice	-2499
▁York	-2500
lying	-2501
▁National	-2502
▁sett	-2503
▁stat	-2504
ada	-2505
ceed	-2506
▁member	-2507
oura	-2508
▁brother	-2509
▁character	-2510
▁Cor	-2511
▁langu	-2512
ops	-2513
▁wouldn	-2514
▁proud	-2515
iling	-2516
lt	-2517
gress	-2518
▁image	-2519
▁computer	-2520
▁save	-2521
▁followed	-2522
▁Pres	-2523
▁ord	-2524
▁private	-2525
cy	-2526
▁onto	-2527
▁meeting	-2528
▁points	-2529
▁Mom	-2530
▁obs	-2531
ground	-2532
▁fing	-2533
▁School	-2534
▁clients	-2535
▁attend	-2536
▁reached	-2537
▁increase	-2538
▁skills	-2539
▁Ag	-2540
▁continued	-2541
▁jump	-2542
▁piece	-2543
pose	-2544
▁network	-2545
▁cand	-2546
▁neg	-2547
▁...	-2548
▁vi	-2549
ipment	-2550
▁role	-2551
▁fine	-2552
▁States	-2553
▁general	-2554
▁original	-2555
▁Are	-2556
▁mass	-2557
▁fair	-2558
cer	-2559
▁treatment	-2560
verage	-2561
▁feature	-2562
▁spot	-2563
▁Of	-2564
▁giving	-2565
▁grab	-2566
▁contract	-2567
▁huge	-2568
bor	-2569
▁Jesus	-2570
icro	-2571
▁dep	-2572
▁lau	-2573
inist	-2574
rug	-2575
▁pulled	-2576
▁gen	-2577
▁potential	-2578
▁herself	-2579
▁cause	-2580
▁according	-2581
ees	-2582
▁manufact	-2583
right	-2584
▁div	-2585
▁Ho	-2586
ipe	-2587
▁Reg	-2588
▁Dav	-2589
reng	-2590
ray	-2591
▁Char	-2592
▁education	-2593
▁bath	-2594
ushed	-2595
like	-2596
▁located	-2597
▁inj	-2598
atter	-2599
crib	-2600
▁stood	-2601
.”	-2602
reg	-2603
aughter	-2604
▁insp	-2605
▁roll	-2606
▁Af	-2607
▁activities	-2608
AS	-2609
▁goes	-2610
▁completely	-2611
▁introdu	-2612
illing	-2613
▁garden	-2614
▁mouth	-2615
▁sold	-2616
▁lots	-2617
▁total	-2618
▁screen	-2619
▁Apr	-2620
▁loss	-2621
▁fu	-2622
▁shows	-2623
▁reach	-2624
▁announ	-2625
▁Stud	-2626
▁toward	-2627
▁maybe	-2628
▁items	-2629
▁sometimes	-2630
▁son	-2631
▁bur	-2632
▁fresh	-2633
▁except	-2634
▁version	-2635
▁board	-2636
▁fear	-2637
more	-2638
sy	-2639
▁modern	-2640
back	-2641
▁gold	-2642
▁feed	-2643
lier	-2644
▁talking	-2645
che	-2646
▁Bu	-2647
▁cam	-2648
iles	-2649
▁deg	-2650
▁High	-2651
ek	-2652
▁Us	-2653
▁insurance	-2654
ham	-2655
▁walking	-2656
▁picture	-2657
atform	-2658
▁yes	-2659
▁film	-2660
▁Pol	-2661
aily	-2662
▁separ	-2663
▁Most	-2664
▁plant	-2665
ED	-2666
▁ten	-2667
▁Acc	-2668
▁mention	-2669
▁More	-2670
▁saying	-2671
▁Spe	-2672
▁Thanks	-2673
▁necessary	-2674
▁scared	-2675
▁additional	-2676
ex	-2677
▁weight	-2678
erson	-2679
▁currently	-2680
▁moving	-2681
▁rate	-2682
erve	-2683
▁led	-2684
▁celebr	-2685
▁Mc	-2686
IS	-2687
▁sales	-2688
▁ability	-2689
▁clot	-2690
▁dom	-2691
▁file	-2692
▁wish	-2693
▁lower	-2694
ken	-2695
iring	-2696
body	-2697
▁terr	-2698
EN	-2699
▁speed	-2700
inner	-2701
hib	-2702
fl	-2703
▁stru	-2704
▁carry	-2705
fficient	-2706
wh	-2707
▁doll	-2708
unt	-2709
▁users	-2710
▁gives	-2711
▁prior	-2712
▁sou	-2713
▁Act	-2714
ky	-2715
▁birth	-2716
▁approach	-2717
imum	-2718
▁happen	-2719
▁imm	-2720
▁apart	-2721
▁summer	-2722
hood	-2723
inary	-2724
▁saf	-2725
▁user	-2726
▁Sw	-2727
▁target	-2728
▁streng	-2729
▁sell	-2730
▁write	-2731
str	-2732
▁growth	-2733
▁decision	-2734
▁grad	-2735
▁excell	-2736
itely	-2737
just	-2738
▁prim	-2739
reed	-2740
▁projects	-2741
▁display	-2742
▁Par	-2743
istic	-2744
▁contrib	-2745
▁medical	-2746
▁stick	-2747
▁parts	-2748
ffee	-2749
▁convers	-2750
▁via	-2751
atory	-2752
ox	-2753
▁Add	-2754
ipped	-2755
▁Any	-2756
▁recent	-2757
▁involved	-2758
ublic	-2759
▁baby	-2760
yond	-2761
▁option	-2762
▁Cr	-2763
atever	-2764
▁grand	-2765
▁included	-2766
▁King	-2767
▁sweet	-2768
▁match	-2769
▁location	-2770
IL	-2771
▁nodded	-2772
▁leaders	-2773
▁offe	-2774
▁credit	-2775
nal	-2776
▁attempt	-2777
▁TH	-2778
▁cas	-2779
icles	-2780
▁arms	-2781
▁standard	-2782
▁variety	-2783
▁Int	-2784
▁affect	-2785
▁wel	-2786
▁Dep	-2787
▁written	-2788
rences	-2789
▁Well	-2790
▁integr	-2791
▁plans	-2792
▁exactly	-2793
zz	-2794
▁Val	-2795
▁First	-2796
▁gets	-2797
▁Sim	-2798
▁production	-2799
itation	-2800
▁recently	-2801
▁allows	-2802
▁stuff	-2803
▁helped	-2804
▁trou	-2805
▁situation	-2806
▁Thank	-2807
▁nature	-2808
▁trip	-2809
put	-2810
▁leading	-2811
▁straight	-2812
board	-2813
▁||	-2814
mas	-2815
rel	-2816
▁student	-2817
action	-2818
▁tit	-2819
▁gas	-2820
▁sky	-2821
▁spirit	-2822
▁encoura	-2823
▁disapp	-2824
▁wonderful	-2825
▁West	-2826
▁terms	-2827
idered	-2828
▁Austral	-2829
▁note	-2830
adem	-2831
▁center	-2832
▁yell	-2833
ests	-2834
▁interesting	-2835
▁Soc	-2836
▁goal	-2837
▁related	-2838
▁April	-2839
attle	-2840
▁Was	-2841
▁article	-2842
▁capt	-2843
▁directly	-2844
aged	-2845
▁enter	-2846
▁sched	-2847
▁places	-2848
▁bank	-2849
▁patients	-2850
▁spent	-2851
orrow	-2852
▁finished	-2853
▁Dan	-2854
▁sus	-2855
▁dry	-2856
▁code	-2857
▁bow	-2858
▁quiet	-2859
▁aware	-2860
ghed	-2861
kes	-2862
▁platform	-2863
ension	-2864
▁send	-2865
▁Many	-2866
▁correct	-2867
undred	-2868
▁bright	-2869
▁English	-2870
acing	-2871
▁x	-2872
▁bud	-2873
iant	-2874
aint	-2875
▁ang	-2876
▁bra	-2877
▁animals	-2878
▁Oct	-2879
▁lived	-2880
het	-2881
ole	-2882
uary	-2883
IT	-2884
▁conditions	-2885
▁neigh	-2886
▁latest	-2887
pri	-2888
▁marketing	-2889
EM	-2890
▁equipment	-2891
▁explore	-2892
ysis	-2893
▁closed	-2894
▁tele	-2895
▁purchase	-2896
▁lab	-2897
set	-2898
dom	-2899
onse	-2900
aling	-2901
tered	-2902
▁fell	-2903
▁ur	-2904
▁international	-2905
▁Also	-2906
ological	-2907
▁depend	-2908
▁waiting	-2909
▁Art	-2910
▁perm	-2911
band	-2912
▁March	-2913
know	-2914
▁attract	-2915
▁arch	-2916
▁Mich	-2917
▁Day	-2918
▁rout	-2919
▁hurt	-2920
▁national	-2921
▁Ear	-2922
▁expected	-2923
▁truth	-2924
year	-2925
▁restaur	-2926
▁ver	-2927
▁suit	-2928
key	-2929
amb	-2930
▁effective	-2931
aging	-2932
▁clim	-2933
▁countries	-2934
AC	-2935
ica	-2936
▁spend	-2937
AL	-2938
▁providing	-2939
▁safety	-2940
▁tools	-2941
▁policy	-2942
ressed	-2943
ocks	-2944
▁Lord	-2945
▁Off	-2946
▁levels	-2947
▁Anna	-2948
oogle	-2949
ibly	-2950
▁programs	-2951
▁sand	-2952
▁Great	-2953
▁watched	-2954
▁cy	-2955
iction	-2956
ament	-2957
▁Center	-2958
cil	-2959
▁jud	-2960
hold	-2961
based	-2962
▁thank	-2963
▁worry	-2964
▁sud	-2965
wise	-2966
▁fully	-2967
▁solution	-2968
▁types	-2969
▁source	-2970
▁County	-2971
▁feels	-2972
▁Other	-2973
IC	-2974
▁machine	-2975
▁considered	-2976
▁attack	-2977
▁sort	-2978
▁rain	-2979
uit	-2980
▁condition	-2981
▁career	-2982
▁laughed	-2983
▁Bro	-2984
▁emot	-2985
▁America	-2986
▁language	-2987
▁immediately	-2988
▁interested	-2989
▁fle	-2990
▁costs	-2991
▁highly	-2992
▁firm	-2993
orge	-2994
TM	-2995
▁Pat	-2996
▁surround	-2997
▁device	-2998
ivity	-2999
▁avoid	-3000
▁helps	-3001
▁starting	-3002
ences	-3003
▁extreme	-3004
▁Get	-3005
▁hosp	-3006
▁War	-3007
▁reve	-3008
▁ble	-3009
▁forg	-3010
▁bi	-3011
hern	-3012
ctions	-3013
▁official	-3014
▁gar	-3015
▁Aut	-3016
▁Germ	-3017
▁collection	-3018
▁materials	-3019
▁truck	-3020
▁wife	-3021
aches	-3022
▁changed	-3023
▁Red	-3024
ession	-3025
sc	-3026
▁message	-3027
▁Mus	-3028
▁purpose	-3029
▁daily	-3030
▁guess	-3031
aled	-3032
▁heat	-3033
▁section	-3034
▁cases	-3035
▁physical	-3036
gy	-3037
▁noticed	-3038
▁showed	-3039
▁TV	-3040
asons	-3041
▁hundred	-3042
▁Inc	-3043
▁groups	-3044
iqu	-3045
▁passed	-3046
▁chair	-3047
▁catch	-3048
reci	-3049
▁UK	-3050
▁toys	-3051
▁beyond	-3052
▁Sept	-3053
▁benefits	-3054
▁fish	-3055
▁dise	-3056
▁resources	-3057
oming	-3058
▁House	-3059
unk	-3060
▁viol	-3061
▁complex	-3062
▁growing	-3063
▁Afric	-3064
▁qual	-3065
▁Since	-3066
wood	-3067
iment	-3068
ously	-3069
▁picked	-3070
▁slight	-3071
▁mis	-3072
uses	-3073
▁Brit	-3074
▁peace	-3075
▁cast	-3076
▁offered	-3077
▁loud	-3078
▁coffee	-3079
▁planning	-3080
▁prec	-3081
▁star	-3082
▁:	-3083
▁replied	-3084
▁understanding	-3085
▁Aug	-3086
▁rev	-3087
ael	-3088
orage	-3089
▁Paul	-3090
▁depart	-3091
▁emerg	-3092
▁President	-3093
bert	-3094
▁mobile	-3095
▁filled	-3096
▁je	-3097
▁doub	-3098
oph	-3099
▁join	-3100
▁excellent	-3101
▁rent	-3102
▁und	-3103
▁respond	-3104
▁pictures	-3105
▁knows	-3106
▁June	-3107
▁breath	-3108
▁pred	-3109
▁subm	-3110
▁pray	-3111
▁--	-3112
cast	-3113
▁wed	-3114
▁drug	-3115
▁legal	-3116
▁prevent	-3117
olf	-3118
▁positive	-3119
▁laugh	-3120
▁middle	-3121
▁Mon	-3122
nes	-3123
▁band	-3124
▁commit	-3125
atives	-3126
▁meant	-3127
▁players	-3128
▁stories	-3129
▁closer	-3130
ondon	-3131
▁concept	-3132
gar	-3133
▁smart	-3134
▁tick	-3135
▁born	-3136
pite	-3137
mark	-3138
▁advent	-3139
▁hous	-3140
▁heavy	-3141
▁furn	-3142
cription	-3143
▁images	-3144
▁expert	-3145
▁successful	-3146
▁response	-3147
▁emb	-3148
▁shop	-3149
▁load	-3150
▁ded	-3151
▁vill	-3152
alt	-3153
▁digital	-3154
▁bear	-3155
▁shot	-3156
olute	-3157
▁investig	-3158
▁train	-3159
ses	-3160
▁tight	-3161
▁implement	-3162
▁document	-3163
izes	-3164
▁circ	-3165
▁achieve	-3166
▁developed	-3167
▁multiple	-3168
▁police	-3169
▁Each	-3170
▁ahead	-3171
▁sale	-3172
rows	-3173
▁court	-3174
earch	-3175
▁beginning	-3176
enge	-3177
▁cab	-3178
▁Wind	-3179
▁exec	-3180
ari	-3181
▁trees	-3182
▁thous	-3183
▁Cons	-3184
▁church	-3185
▁commer	-3186
▁challeng	-3187
ications	-3188
mm	-3189
▁paid	-3190
▁earn	-3191
▁global	-3192
irr	-3193
▁former	-3194
▁definitely	-3195
▁accom	-3196
ears	-3197
▁farm	-3198
▁street	-3199
▁certainly	-3200
rs	-3201
▁average	-3202
▁slowly	-3203
Oh	-3204
▁aim	-3205
uted	-3206
▁Black	-3207
▁release	-3208
ales	-3209
▁significant	-3210
▁pet	-3211
▁nearly	-3212
▁lov	-3213
iture	-3214
▁block	-3215
▁sitting	-3216
▁stage	-3217
▁healthy	-3218
▁Ser	-3219
ancy	-3220
isions	-3221
▁normal	-3222
rench	-3223
▁neck	-3224
aign	-3225
▁creating	-3226
▁Maybe	-3227
imately	-3228
▁Health	-3229
▁ge	-3230
cause	-3231
▁soci	-3232
▁influ	-3233
▁Home	-3234
▁lic	-3235
vey	-3236
▁Coun	-3237
aly	-3238
▁effort	-3239
ague	-3240
▁burn	-3241
▁steps	-3242
la	-3243
pa	-3244
▁solutions	-3245
St	-3246
▁cup	-3247
ilies	-3248
oting	-3249
▁deliver	-3250
▁pattern	-3251
▁organization	-3252
▁bottom	-3253
ager	-3254
▁London	-3255
▁International	-3256
▁China	-3257
▁watching	-3258
▁difference	-3259
ils	-3260
▁photos	-3261
▁Gener	-3262
▁regist	-3263
agn	-3264
▁Tod	-3265
arr	-3266
▁ep	-3267
chan	-3268
irection	-3269
__	-3270
▁listen	-3271
off	-3272
▁demand	-3273
ength	-3274
ober	-3275
▁relax	-3276
ooth	-3277
▁truly	-3278
▁Yes	-3279
▁seeing	-3280
▁India	-3281
▁earth	-3282
▁Whe	-3283
▁notice	-3284
▁vehicle	-3285
▁covered	-3286
▁allowed	-3287
▁delic	-3288
▁vac	-3289
▁seat	-3290
▁appreci	-3291
▁consist	-3292
▁gift	-3293
▁behav	-3294
▁club	-3295
pre	-3296
apan	-3297
▁Google	-3298
▁dinner	-3299
▁San	-3300
▁Feb	-3301
RE	-3302
▁La	-3303
cape	-3304
▁David	-3305
▁traditional	-3306
▁Direct	-3307
▁demon	-3308
▁hotel	-3309
▁wild	-3310
▁rights	-3311
This	-3312
rom	-3313
▁movie	-3314
▁bedroom	-3315
▁Christmas	-3316
▁danger	-3317
▁helping	-3318
▁limited	-3319
▁pieces	-3320
OT	-3321
▁pool	-3322
roup	-3323
And	-3324
▁comfortable	-3325
▁apply	-3326
aker	-3327
▁Rem	-3328
▁forest	-3329
▁broad	-3330
▁prop	-3331
▁placed	-3332
▁Air	-3333
▁patient	-3334
▁previous	-3335
▁satis	-3336
▁advant	-3337
▁toy	-3338
▁Over	-3339
ocked	-3340
arily	-3341
▁Book	-3342
▁tom	-3343
▁surface	-3344
raft	-3345
▁spread	-3346
ato	-3347
▁ice	-3348
itary	-3349
ommy	-3350
▁luck	-3351
▁temper	-3352
▁released	-3353
▁January	-3354
▁strugg	-3355
▁stock	-3356
aven	-3357
ares	-3358
▁caught	-3359
▁powerful	-3360
▁Sund	-3361
▁corner	-3362
▁realized	-3363
▁gun	-3364
▁defe	-3365
▁Sci	-3366
idents	-3367
ocol	-3368
eah	-3369
▁requirements	-3370
▁mommy	-3371
But	-3372
▁exerc	-3373
▁standing	-3374
▁fab	-3375
▁mist	-3376
▁force	-3377
erved	-3378
house	-3379
OS	-3380
▁Luc	-3381
▁subst	-3382
▁meaning	-3383
▁Good	-3384
▁hus	-3385
▁innov	-3386
▁figure	-3387
”.	-3388
anging	-3389
▁careful	-3390
▁decor	-3391
..."	-3392
ett	-3393
artment	-3394
bing	-3395
▁Associ	-3396
▁September	-3397
▁consult	-3398
▁surv	-3399
▁Cour	-3400
▁easier	-3401
▁Although	-3402
▁thoughts	-3403
▁Bus	-3404
▁frame	-3405
rupt	-3406
▁returned	-3407
▁cloud	-3408
▁Sud	-3409
wor	-3410
▁serious	-3411
▁Bel	-3412
▁daughter	-3413
▁Look	-3414
▁conv	-3415
aries	-3416
▁weeke	-3417
▁acqu	-3418
▁died	-3419
▁kill	-3420
arter	-3421
▁threat	-3422
▁partners	-3423
▁October	-3424
▁distrib	-3425
▁strength	-3426
▁finish	-3427
▁describ	-3428
▁July	-3429
▁ign	-3430
▁nut	-3431
▁client	-3432
▁remind	-3433
▁vict	-3434
▁leaving	-3435
▁wear	-3436
nded	-3437
lied	-3438
ka	-3439
▁prem	-3440
▁direction	-3441
sequ	-3442
▁Nove	-3443
▁political	-3444
ipping	-3445
▁glad	-3446
▁Mary	-3447
▁individuals	-3448
▁although	-3449
▁activity	-3450
▁cars	-3451
ertain	-3452
▁prices	-3453
rey	-3454
ulations	-3455
rant	-3456
▁snow	-3457
▁progress	-3458
▁faith	-3459
▁eight	-3460
▁earlier	-3461
▁pen	-3462
▁max	-3463
▁forget	-3464
▁arr	-3465
▁contain	-3466
▁occur	-3467
rast	-3468
sych	-3469
▁conduct	-3470
▁perhaps	-3471
▁evening	-3472
▁journey	-3473
▁holding	-3474
▁sites	-3475
▁Design	-3476
▁whatever	-3477
▁race	-3478
cember	-3479
▁ult	-3480
▁decl	-3481
vant	-3482
place	-3483
▁Face	-3484
itter	-3485
▁Japan	-3486
ker	-3487
itute	-3488
▁Out	-3489
In	-3490
▁charge	-3491
▁comment	-3492
▁analysis	-3493
▁campaign	-3494
▁employees	-3495
▁damage	-3496
AP	-3497
▁obv	-3498
▁lack	-3499
▁ship	-3500
▁applications	-3501
hest	-3502
ida	-3503
asc	-3504
lin	-3505
▁frequ	-3506
▁Sar	-3507
▁copy	-3508
▁region	-3509
▁meas	-3510
▁Calif	-3511
▁colour	-3512
▁kiss	-3513
▁brain	-3514
▁opportunities	-3515
▁pow	-3516
▁Net	-3517
▁businesses	-3518
▁administ	-3519
oot	-3520
▁Chapter	-3521
anch	-3522
▁adult	-3523
▁serve	-3524
▁college	-3525
▁letter	-3526
▁arrived	-3527
▁construction	-3528
▁reflect	-3529
▁pressure	-3530
▁guide	-3531
▁altern	-3532
▁families	-3533
▁fat	-3534
▁poor	-3535
▁advice	-3536
▁commercial	-3537
inated	-3538
ores	-3539
▁okay	-3540
▁assess	-3541
▁Oh	-3542
▁shared	-3543
▁spl	-3544
▁See	-3545
AM	-3546
▁thanks	-3547
ss	-3548
ocr	-3549
▁Mor	-3550
uate	-3551
▁paint	-3552
▁August	-3553
▁cru	-3554
▁Commun	-3555
▁uses	-3556
▁storage	-3557
▁appropri	-3558
▁pages	-3559
icate	-3560
arant	-3561
▁Sl	-3562
▁secret	-3563
▁Russ	-3564
ford	-3565
▁Friday	-3566
▁adjust	-3567
▁independ	-3568
▁haven	-3569
▁Up	-3570
▁published	-3571
mon	-3572
▁doctor	-3573
ornia	-3574
▁benefit	-3575
ederal	-3576
▁raised	-3577
▁setting	-3578
▁Because	-3579
ald	-3580
▁photo	-3581
itude	-3582
▁die	-3583
▁remain	-3584
▁December	-3585
Well	-3586
▁Free	-3587
▁friendly	-3588
▁Bob	-3589
▁Somet	-3590
▁sounds	-3591
ashion	-3592
▁absolute	-3593
▁guy	-3594
▁whis	-3595
▁offering	-3596
▁instruct	-3597
▁hall	-3598
▁profession	-3599
▁Alex	-3600
▁beach	-3601
▁Satur	-3602
▁useful	-3603
▁organiz	-3604
ville	-3605
▁husband	-3606
▁James	-3607
▁goals	-3608
▁histor	-3609
▁prefer	-3610
▁desk	-3611
▁enjoyed	-3612
ography	-3613
bur	-3614
itect	-3615
▁November	-3616
▁investment	-3617
▁den	-3618
olly	-3619
▁afford	-3620
▁interview	-3621
▁kid	-3622
▁angry	-3623
▁numbers	-3624
ounds	-3625
▁stone	-3626
▁aspect	-3627
▁Their	-3628
▁rub	-3629
rog	-3630
▁lines	-3631
▁crow	-3632
?'	-3633
▁Tra	-3634
▁People	-3635
▁metal	-3636
▁boat	-3637
▁noise	-3638
ivil	-3639
▁err	-3640
▁Prof	-3641
▁entry	-3642
▁subs	-3643
▁evidence	-3644
▁prot	-3645
using	-3646
▁bul	-3647
fast	-3648
▁shown	-3649
▁trade	-3650
▁occas	-3651
▁measure	-3652
well	-3653
ube	-3654
▁shut	-3655
▁owner	-3656
▁analy	-3657
▁aren	-3658
▁shout	-3659
▁weather	-3660
icip	-3661
▁button	-3662
etic	-3663
▁Rec	-3664
▁cash	-3665
▁mine	-3666
oices	-3667
▁Sunday	-3668
ustr	-3669
▁ing	-3670
▁Trans	-3671
▁budget	-3672
▁Law	-3673
▁relig	-3674
ulated	-3675
ferences	-3676
▁flowers	-3677
amm	-3678
▁pal	-3679
▁experienced	-3680
▁liter	-3681
▁transport	-3682
▁wedding	-3683
▁sea	-3684
▁player	-3685
▁culture	-3686
▁particularly	-3687
▁ton	-3688
▁scient	-3689
▁bathroom	-3690
▁memory	-3691
▁repe	-3692
▁station	-3693
▁Ann	-3694
▁harm	-3695
▁degree	-3696
▁basic	-3697
▁##	-3698
vis	-3699
▁enh	-3700
ords	-3701
▁suff	-3702
▁California	-3703
▁hadn	-3704
▁gra	-3705
▁Department	-3706
▁colors	-3707
▁double	-3708
▁prin	-3709
▁categ	-3710
ope	-3711
▁effects	-3712
▁distance	-3713
▁responsible	-3714
▁replace	-3715
▁Today	-3716
▁appeared	-3717
▁leaves	-3718
▁finding	-3719
▁Pri	-3720
▁clothes	-3721
▁reported	-3722
▁handle	-3723
▁basis	-3724
▁Group	-3725
▁structure	-3726
▁award	-3727
▁increasing	-3728
▁proced	-3729
vision	-3730
bl	-3731
min	-3732
▁active	-3733
rote	-3734
▁counter	-3735
tee	-3736
ault	-3737
ped	-3738
ading	-3739
▁Techn	-3740
▁edge	-3741
amic	-3742
How	-3743
▁sister	-3744
hol	-3745
▁Dad	-3746
▁supply	-3747
hem	-3748
▁kick	-3749
dd	-3750
▁Ir	-3751
▁minute	-3752
▁stress	-3753
▁Suddenly	-3754
▁Like	-3755
▁essential	-3756
▁unit	-3757
▁broken	-3758
▁driving	-3759
▁incred	-3760
oms	-3761
istry	-3762
▁rules	-3763
ship	-3764
▁increased	-3765
▁ride	-3766
▁Op	-3767
▁fly	-3768
change	-3769
Don	-3770
▁posted	-3771
▁Service	-3772
▁Saturday	-3773
▁driver	-3774
▁Del	-3775
▁compon	-3776
xic	-3777
▁Cle	-3778
▁welcome	-3779
▁East	-3780
▁owners	-3781
rial	-3782
▁cream	-3783
iation	-3784
▁spoke	-3785
iverse	-3786
iel	-3787
▁miles	-3788
US	-3789
▁capital	-3790
ae	-3791
▁science	-3792
porate	-3793
▁managed	-3794
ruary	-3795
▁length	-3796
▁smell	-3797
▁devices	-3798
▁Mod	-3799
▁girls	-3800
▁opening	-3801
▁older	-3802
▁Facebook	-3803
▁master	-3804
▁stream	-3805
▁drop	-3806
▁greater	-3807
▁served	-3808
ancing	-3809
▁overall	-3810
▁wine	-3811
▁beg	-3812
▁creative	-3813
▁appoint	-3814
▁Ant	-3815
▁surprise	-3816
▁extremely	-3817
▁Where	-3818
EC	-3819
ushing	-3820
▁hell	-3821
▁Who	-3822
▁chest	-3823
▁mechan	-3824
aked	-3825
estern	-3826
,'	-3827
osing	-3828
▁Michael	-3829
▁unc	-3830
▁keeping	-3831
▁lands	-3832
▁extend	-3833
▁weekend	-3834
▁economic	-3835
▁Sch	-3836
arc	-3837
▁unf	-3838
▁Pal	-3839
▁schools	-3840
▁guys	-3841
useum	-3842
ander	-3843
▁whose	-3844
▁af	-3845
lim	-3846
▁tall	-3847
▁thick	-3848
▁Business	-3849
vest	-3850
▁electric	-3851
▁states	-3852
how	-3853
eds	-3854
▁shook	-3855
oe	-3856
▁challenge	-3857
sec	-3858
hens	-3859
cles	-3860
▁surprised	-3861
▁associated	-3862
▁Council	-3863
▁nation	-3864
▁reduce	-3865
▁Street	-3866
▁produce	-3867
▁internet	-3868
▁sharing	-3869
▁fant	-3870
▁resist	-3871
utive	-3872
▁Another	-3873
irty	-3874
So	-3875
▁Mac	-3876
▁Ange	-3877
formation	-3878
▁reasons	-3879
bon	-3880
ban	-3881
▁completed	-3882
▁carefully	-3883
▁protection	-3884
bum	-3885
iance	-3886
▁French	-3887
▁background	-3888
sp	-3889
▁reality	-3890
▁files	-3891
Let	-3892
▁Have	-3893
▁larger	-3894
▁agreed	-3895
▁delivery	-3896
OM	-3897
▁European	-3898
▁disease	-3899
▁February	-3900
▁outd	-3901
▁mill	-3902
illy	-3903
▁king	-3904
▁Love	-3905
▁largest	-3906
▁homes	-3907
▁•	-3908
▁mission	-3909
ID	-3910
▁rich	-3911
ronic	-3912
▁busy	-3913
▁smooth	-3914
▁Two	-3915
▁continu	-3916
▁prepared	-3917
▁pu	-3918
▁shape	-3919
▁lose	-3920
iers	-3921
▁swim	-3922
▁seven	-3923
▁fill	-3924
▁knowing	-3925
ET	-3926
▁White	-3927
cious	-3928
▁hospital	-3929
▁rob	-3930
▁Grand	-3931
rael	-3932
enior	-3933
▁During	-3934
▁eating	-3935
▁Port	-3936
▁movement	-3937
▁Mag	-3938
ties	-3939
icing	-3940
▁fem	-3941
atively	-3942
▁Inter	-3943
▁regarding	-3944
▁brown	-3945
▁camera	-3946
▁existing	-3947
▁advert	-3948
umn	-3949
▁studies	-3950
▁island	-3951
▁throw	-3952
▁Indian	-3953
▁Company	-3954
field	-3955
▁Jim	-3956
▁transfer	-3957
iliar	-3958
ios	-3959
▁William	-3960
▁suddenly	-3961
▁accur	-3962
▁Hel	-3963
▁fold	-3964
▁bes	-3965
",	-3966
roy	-3967
▁College	-3968
▁rates	-3969
▁Joe	-3970
▁van	-3971
EO	-3972
▁Make	-3973
order	-3974
▁Canada	-3975
▁Best	-3976
▁Jer	-3977
▁pock	-3978
rian	-3979
▁Sol	-3980
▁manage	-3981
phone	-3982
▁opin	-3983
▁chem	-3984
porary	-3985
▁Before	-3986
▁Services	-3987
▁Christian	-3988
oos	-3989
▁batter	-3990
ams	-3991
lies	-3992
▁shoulder	-3993
▁lunch	-3994
▁announced	-3995
▁rid	-3996
wide	-3997
▁flat	-3998
▁butter	-3999
imal	-4000
▁Mond	-4001
mp	-4002
▁cards	-4003
▁grabbed	-4004
▁Post	-4005
▁ideal	-4006
▁presence	-4007
coming	-4008
▁anymore	-4009
▁Wed	-4010
▁pair	-4011
▁instit	-4012
▁libr	-4013
▁Lib	-4014
▁sust	-4015
ws	-4016
▁Ev	-4017
▁Gold	-4018
▁appropriate	-4019
▁II	-4020
▁furniture	-4021
▁secure	-4022
▁Cur	-4023
▁£	-4024
oyal	-4025
za	-4026
▁guarant	-4027
▁Super	-4028
▁compared	-4029
▁strategy	-4030
▁lean	-4031
omen	-4032
▁balance	-4033
▁Sara	-4034
inate	-4035
▁bought	-4036
▁slightly	-4037
▁joy	-4038
▁established	-4039
ING	-4040
atically	-4041
▁System	-4042
aming	-4043
itic	-4044
▁clin	-4045
▁AN	-4046
▁teams	-4047
inct	-4048
uk	-4049
▁hung	-4050
▁teacher	-4051
▁mo	-4052
▁connection	-4053
▁Sur	-4054
▁doors	-4055
▁Green	-4056
▁wrote	-4057
▁therefore	-4058
▁payment	-4059
▁tim	-4060
▁honest	-4061
▁candid	-4062
▁plus	-4063
▁advantage	-4064
▁British	-4065
iger	-4066
▁partner	-4067
arp	-4068
▁Ob	-4069
▁methods	-4070
▁thr	-4071
▁Av	-4072
▁clearly	-4073
▁Mid	-4074
▁title	-4075
▁manufacture	-4076
ifying	-4077
frie	-4078
▁Govern	-4079
▁solid	-4080
ulate	-4081
▁strange	-4082
ails	-4083
men	-4084
▁hugged	-4085
▁roof	-4086
acity	-4087
▁flo	-4088
▁names	-4089
▁caused	-4090
▁legs	-4091
ho	-4092
▁Australia	-4093
Do	-4094
▁highest	-4095
▁cabin	-4096
▁runs	-4097
▁Dem	-4098
ortunately	-4099
ado	-4100
▁According	-4101
oted	-4102
▁collabor	-4103
arely	-4104
PS	-4105
▁grass	-4106
▁taste	-4107
▁income	-4108
▁decide	-4109
▁vision	-4110
unte	-4111
▁empt	-4112
▁eval	-4113
Why	-4114
istics	-4115
▁trouble	-4116
▁mur	-4117
▁reports	-4118
▁Finally	-4119
iques	-4120
see	-4121
▁cit	-4122
▁craft	-4123
▁util	-4124
▁Rich	-4125
▁Click	-4126
▁asking	-4127
▁Church	-4128
▁plants	-4129
wers	-4130
▁que	-4131
▁stret	-4132
▁efforts	-4133
▁annual	-4134
▁society	-4135
▁happens	-4136
▁teaching	-4137
apers	-4138
▁iP	-4139
▁Work	-4140
If	-4141
▁ring	-4142
▁steel	-4143
▁killed	-4144
bered	-4145
▁Israel	-4146
▁leader	-4147
▁Hall	-4148
▁selection	-4149
▁willing	-4150
ologies	-4151
▁Check	-4152
▁weap	-4153
▁expand	-4154
▁beauty	-4155
venue	-4156
EL	-4157
esome	-4158
ket	-4159
isc	-4160
ston	-4161
▁traffic	-4162
tr	-4163
▁scream	-4164
▁passion	-4165
▁rooms	-4166
omb	-4167
rem	-4168
▁military	-4169
▁winter	-4170
▁map	-4171
▁reli	-4172
▁dance	-4173
▁sight	-4174
▁experiences	-4175
▁smaller	-4176
▁century	-4177
▁mentioned	-4178
▁THE	-4179
▁Internet	-4180
▁cancer	-4181
▁sports	-4182
oman	-4183
▁actual	-4184
▁spring	-4185
▁conversation	-4186
▁Hot	-4187
▁egg	-4188
▁Flor	-4189
▁task	-4190
▁Windows	-4191
▁Dist	-4192
▁laws	-4193
▁models	-4194
▁communication	-4195
▁Pet	-4196
▁+	-4197
▁Spr	-4198
▁tired	-4199
▁efficient	-4200
▁chann	-4201
ixt	-4202
▁virt	-4203
▁dim	-4204
▁teeth	-4205
osh	-4206
▁forms	-4207
▁flex	-4208
▁walls	-4209
ait	-4210
▁dat	-4211
look	-4212
▁Play	-4213
▁Mal	-4214
▁Cam	-4215
force	-4216
▁Ret	-4217
▁statement	-4218
▁exhib	-4219
▁interact	-4220
▁brief	-4221
▁jobs	-4222
▁requires	-4223
▁dropped	-4224
▁becoming	-4225
▁waste	-4226
▁IS	-4227
▁estate	-4228
▁tag	-4229
▁accident	-4230
▁population	-4231
▁Mia	-4232
▁Mart	-4233
uty	-4234
▁river	-4235
▁explain	-4236
▁cells	-4237
▁discover	-4238
idential	-4239
▁conven	-4240
▁numer	-4241
▁yellow	-4242
▁Miss	-4243
▁restaurant	-4244
▁generally	-4245
ien	-4246
▁remove	-4247
▁faster	-4248
▁Earth	-4249
▁Found	-4250
▁Develop	-4251
▁Use	-4252
▁assign	-4253
▁album	-4254
idden	-4255
▁ap	-4256
▁flav	-4257
▁doubt	-4258
▁pros	-4259
pective	-4260
▁seconds	-4261
▁Monday	-4262
▁maintain	-4263
▁windows	-4264
▁delicious	-4265
▁Sarah	-4266
▁shopping	-4267
▁ended	-4268
▁demonstr	-4269
▁eventually	-4270
▁General	-4271
▁Island	-4272
▁showing	-4273
ipp	-4274
▁animal	-4275
.)	-4276
▁becomes	-4277
asy	-4278
hington	-4279
duc	-4280
▁lights	-4281
▁belong	-4282
▁remem	-4283
▁psych	-4284
▁Plan	-4285
▁tast	-4286
inese	-4287
▁famous	-4288
▁Sub	-4289
▁fashion	-4290
▁Find	-4291
▁stepped	-4292
▁starts	-4293
ij	-4294
▁motor	-4295
▁ju	-4296
▁fingers	-4297
▁nove	-4298
▁plenty	-4299
raid	-4300
aze	-4301
▁Program	-4302
usion	-4303
ero	-4304
▁tend	-4305
ishes	-4306
▁Peter	-4307
▁telling	-4308
▁hug	-4309
▁PC	-4310
roid	-4311
▁command	-4312
▁beat	-4313
▁guid	-4314
▁tun	-4315
▁Tex	-4316
▁calls	-4317
▁primary	-4318
▁adop	-4319
▁explained	-4320
icine	-4321
▁Thom	-4322
▁putting	-4323
▁Rob	-4324
▁repair	-4325
wel	-4326
▁weak	-4327
itness	-4328
▁views	-4329
▁Down	-4330
▁helpful	-4331
▁values	-4332
▁separate	-4333
hered	-4334
ym	-4335
AD	-4336
▁audience	-4337
▁Matt	-4338
▁Association	-4339
▁multi	-4340
▁soul	-4341
▁cake	-4342
noon	-4343
▁supposed	-4344
leg	-4345
▁Court	-4346
▁lips	-4347
▁billion	-4348
▁Supp	-4349
▁tail	-4350
▁horse	-4351
▁IN	-4352
▁?	-4353
ya	-4354
care	-4355
semb	-4356
aped	-4357
▁Mad	-4358
▁produced	-4359
▁IT	-4360
ech	-4361
▁crowd	-4362
▁trail	-4363
▁Both	-4364
▁purs	-4365
raw	-4366
▁critical	-4367
▁Life	-4368
oop	-4369
▁Washington	-4370
▁Sun	-4371
▁transl	-4372
org	-4373
▁wearing	-4374
▁carried	-4375
down	-4376
▁elements	-4377
▁gain	-4378
tenance	-4379
▁Web	-4380
cient	-4381
ula	-4382
▁Board	-4383
nel	-4384
wered	-4385
▁therap	-4386
cel	-4387
▁neighbor	-4388
term	-4389
▁familiar	-4390
▁Everyone	-4391
▁pushed	-4392
▁Sil	-4393
▁Only	-4394
▁Under	-4395
▁sex	-4396
▁battle	-4397
▁guard	-4398
enses	-4399
▁graph	-4400
▁River	-4401
▁fan	-4402
encies	-4403
itar	-4404
▁joined	-4405
▁holiday	-4406
▁Take	-4407
▁Cong	-4408
▁Mem	-4409
pet	-4410
kin	-4411
▁lovely	-4412
▁Last	-4413
▁Rel	-4414
ashed	-4415
▁initi	-4416
▁remov	-4417
▁biggest	-4418
▁ingred	-4419
▁presented	-4420
▁limit	-4421
▁tur	-4422
▁magn	-4423
▁tea	-4424
▁gro	-4425
▁determine	-4426
▁teach	-4427
inn	-4428
▁flew	-4429
night	-4430
▁tips	-4431
▁focused	-4432
bu	-4433
▁micro	-4434
▁magic	-4435
▁architect	-4436
▁situ	-4437
▁Research	-4438
friend	-4439
▁parties	-4440
cean	-4441
gon	-4442
▁academ	-4443
▁Sa	-4444
▁classes	-4445
rees	-4446
▁otherwise	-4447
▁wet	-4448
ternal	-4449
▁challenges	-4450
works	-4451
▁guests	-4452
▁cheap	-4453
▁bill	-4454
▁chick	-4455
▁Lear	-4456
▁south	-4457
estival	-4458
▁hun	-4459
▁sick	-4460
▁organizations	-4461
▁Educ	-4462
▁cleaning	-4463
▁concent	-4464
▁lady	-4465
oma	-4466
▁impl	-4467
standing	-4468
▁connected	-4469
▁Loc	-4470
▁adventure	-4471
but	-4472
▁technical	-4473
▁oppos	-4474
ented	-4475
ript	-4476
▁veget	-4477
▁Bre	-4478
▁cart	-4479
▁standards	-4480
▁quarter	-4481
▁scene	-4482
▁express	-4483
aved	-4484
▁Its	-4485
▁argu	-4486
▁developing	-4487
▁expensive	-4488
▁pun	-4489
agram	-4490
overy	-4491
ette	-4492
fit	-4493
ception	-4494
▁Produ	-4495
▁afraid	-4496
▁Str	-4497
▁turns	-4498
bour	-4499
▁approx	-4500
▁forgot	-4501
text	-4502
▁advanced	-4503
▁schedule	-4504
▁missing	-4505
▁exercise	-4506
lig	-4507
▁changing	-4508
vin	-4509
box	-4510
ago	-4511
▁Market	-4512
):	-4513
▁Did	-4514
▁Office	-4515
▁Call	-4516
▁Hum	-4517
ervation	-4518
▁maint	-4519
▁Vis	-4520
▁mail	-4521
▁Chinese	-4522
▁Sal	-4523
gn	-4524
▁thus	-4525
▁actions	-4526
ommod	-4527
vere	-4528
▁central	-4529
pm	-4530
sey	-4531
▁session	-4532
▁origin	-4533
▁north	-4534
▁Club	-4535
▁Big	-4536
▁afternoon	-4537
▁contains	-4538
OU	-4539
▁diet	-4540
col	-4541
▁Sing	-4542
▁entered	-4543
▁reviews	-4544
akers	-4545
▁ourselves	-4546
▁status	-4547
▁incor	-4548
▁trick	-4549
▁wire	-4550
▁Met	-4551
▁mer	-4552
lla	-4553
▁Lou	-4554
▁remains	-4555
▁fruit	-4556
ads	-4557
▁websites	-4558
▁sees	-4559
▁Micro	-4560
never	-4561
ila	-4562
eper	-4563
▁exciting	-4564
▁breakfast	-4565
▁retail	-4566
▁selected	-4567
Is	-4568
odies	-4569
zen	-4570
There	-4571
▁fif	-4572
▁hole	-4573
▁scen	-4574
▁football	-4575
▁empty	-4576
isation	-4577
▁agreement	-4578
▁push	-4579
▁Ins	-4580
itors	-4581
▁seek	-4582
llig	-4583
▁village	-4584
▁dedicated	-4585
▁Mill	-4586
▁mort	-4587
▁â	-4588
▁plastic	-4589
▁mostly	-4590
▁highlight	-4591
▁Lu	-4592
▁Bay	-4593
▁calling	-4594
▁Fore	-4595
cript	-4596
▁George	-4597
BC	-4598
▁Class	-4599
OL	-4600
▁workers	-4601
isted	-4602
▁grew	-4603
▁married	-4604
Ch	-4605
gal	-4606
odes	-4607
▁volunte	-4608
▁testing	-4609
antic	-4610
▁Que	-4611
▁thanked	-4612
▁tiny	-4613
▁=	-4614
▁species	-4615
▁civil	-4616
▁grant	-4617
▁fol	-4618
▁foreign	-4619
▁expression	-4620
▁thousands	-4621
▁god	-4622
▁>	-4623
osure	-4624
▁Amaz	-4625
▁factors	-4626
▁turning	-4627
▁spending	-4628
ifts	-4629
▁Mel	-4630
▁Sum	-4631
▁calc	-4632
known	-4633
ench	-4634
▁characters	-4635
▁capacity	-4636
▁adding	-4637
rehens	-4638
▁gent	-4639
▁Whether	-4640
▁Those	-4641
▁initial	-4642
▁rap	-4643
▁Texas	-4644
▁realize	-4645
▁director	-4646
▁Mo	-4647
▁shoes	-4648
▁pointed	-4649
▁answered	-4650
▁une	-4651
riage	-4652
▁desire	-4653
AIL	-4654
▁blank	-4655
▁update	-4656
▁competition	-4657
ga	-4658
▁buying	-4659
▁comments	-4660
▁uns	-4661
▁favour	-4662
▁refer	-4663
esh	-4664
ummy	-4665
▁Road	-4666
IP	-4667
▁independent	-4668
▁mut	-4669
▁absolutely	-4670
▁nor	-4671
uel	-4672
▁operations	-4673
▁tomorrow	-4674
My	-4675
▁boys	-4676
▁har	-4677
▁Phil	-4678
adow	-4679
▁nerv	-4680
▁Africa	-4681
▁Bank	-4682
new	-4683
▁birds	-4684
ocolate	-4685
▁promot	-4686
aine	-4687
▁described	-4688
▁gather	-4689
ena	-4690
▁facilities	-4691
▁despite	-4692
cribe	-4693
▁sav	-4694
▁professionals	-4695
▁hat	-4696
ki	-4697
▁lit	-4698
anda	-4699
Thank	-4700
▁Bet	-4701
iency	-4702
▁unless	-4703
▁hearing	-4704
ona	-4705
▁Dec	-4706
▁menu	-4707
▁numerous	-4708
▁rat	-4709
▁disp	-4710
osen	-4711
▁switch	-4712
▁dangerous	-4713
▁temperature	-4714
▁exclus	-4715
▁communities	-4716
▁determined	-4717
▁Florida	-4718
▁manner	-4719
ctors	-4720
rance	-4721
▁funny	-4722
▁jumped	-4723
▁worse	-4724
▁conference	-4725
▁mental	-4726
▁Instead	-4727
▁Light	-4728
▁circum	-4729
▁accommod	-4730
▁relevant	-4731
ivered	-4732
unning	-4733
aded	-4734
▁discovered	-4735
oom	-4736
▁brave	-4737
”,	-4738
IG	-4739
▁bigger	-4740
▁listed	-4741
▁wra	-4742
▁Bill	-4743
▁Care	-4744
▁visual	-4745
▁package	-4746
▁spect	-4747
▁server	-4748
▁removed	-4749
▁dining	-4750
▁England	-4751
▁lux	-4752
▁anywhere	-4753
ius	-4754
▁meal	-4755
▁brings	-4756
▁Ty	-4757
▁Frank	-4758
ooper	-4759
▁anti	-4760
▁loan	-4761
▁Management	-4762
▁Lake	-4763
▁satisf	-4764
▁sugar	-4765
▁Mount	-4766
▁arrange	-4767
▁whom	-4768
▁Child	-4769
▁manager	-4770
▁Hy	-4771
▁gall	-4772
fr	-4773
entially	-4774
▁sets	-4775
▁Star	-4776
▁encourage	-4777
▁continues	-4778
▁practices	-4779
▁score	-4780
▁impress	-4781
ris	-4782
▁Vol	-4783
▁discount	-4784
▁radio	-4785
uable	-4786
▁bike	-4787
▁decisions	-4788
▁Phot	-4789
yer	-4790
▁tells	-4791
▁artist	-4792
ION	-4793
▁likes	-4794
hips	-4795
reek	-4796
▁advance	-4797
rolled	-4798
oles	-4799
▁core	-4800
▁Po	-4801
▁der	-4802
▁Bra	-4803
▁plate	-4804
▁broke	-4805
▁establish	-4806
▁techniques	-4807
▁stars	-4808
uries	-4809
▁sector	-4810
▁Water	-4811
▁mas	-4812
▁Back	-4813
▁economy	-4814
▁citiz	-4815
▁accompl	-4816
▁properties	-4817
▁experts	-4818
▁operating	-4819
▁funds	-4820
▁shower	-4821
▁Mil	-4822
what	-4823
▁Next	-4824
▁Time	-4825
▁launch	-4826
▁contem	-4827
▁sem	-4828
▁###	-4829
They	-4830
▁dump	-4831
▁sch	-4832
craft	-4833
▁Institute	-4834
▁detect	-4835
▁instru	-4836
▁waited	-4837
uled	-4838
▁songs	-4839
▁intellig	-4840
▁teachers	-4841
anta	-4842
▁polic	-4843
iber	-4844
▁maintenance	-4845
▁anyway	-4846
▁Profess	-4847
▁Lucy	-4848
tt	-4849
isl	-4850
▁fabric	-4851
uce	-4852
▁ban	-4853
▁combination	-4854
▁remembered	-4855
arrow	-4856
▁Jul	-4857
NA	-4858
uration	-4859
▁Tues	-4860
▁stre	-4861
▁identify	-4862
▁promise	-4863
▁indic	-4864
▁Power	-4865
▁operation	-4866
▁worried	-4867
▁vari	-4868
▁sustain	-4869
▁imagine	-4870
▁Tur	-4871
▁square	-4872
▁behavior	-4873
▁Fo	-4874
▁selling	-4875
pan	-4876
▁fee	-4877
▁calm	-4878
verse	-4879
▁Thurs	-4880
▁pin	-4881
She	-4882
free	-4883
▁motion	-4884
▁fans	-4885
▁links	-4886
▁medium	-4887
▁rose	-4888
▁transform	-4889
▁er	-4890
MS	-4891
▁Master	-4892
▁fixed	-4893
ota	-4894
▁nearby	-4895
▁rise	-4896
▁visitors	-4897
▁pocket	-4898
▁loves	-4899
mbol	-4900
▁president	-4901
▁stayed	-4902
▁bound	-4903
itz	-4904
wr	-4905
▁Hist	-4906
▁pink	-4907
▁department	-4908
▁applied	-4909
CC	-4910
▁sides	-4911
▁wheel	-4912
▁format	-4913
▁totally	-4914
▁iron	-4915
Can	-4916
▁performed	-4917
▁Republic	-4918
▁twenty	-4919
ef	-4920
orial	-4921
▁missed	-4922
arsh	-4923
▁allowing	-4924
▁majority	-4925
▁speaking	-4926
▁properly	-4927
▁enem	-4928
▁possibly	-4929
▁processes	-4930
▁parking	-4931
▁rot	-4932
pected	-4933
▁Him	-4934
▁Word	-4935
gment	-4936
▁appears	-4937
▁Er	-4938
▁library	-4939
ye	-4940
▁propos	-4941
▁flower	-4942
ola	-4943
▁scr	-4944
▁Sometimes	-4945
▁amb	-4946
▁ST	-4947
▁Blue	-4948
illa	-4949
▁Fam	-4950
▁Rock	-4951
▁designs	-4952
▁assum	-4953
▁Jane	-4954
▁finger	-4955
▁News	-4956
▁thro	-4957
▁Open	-4958
▁classic	-4959
▁scale	-4960
▁Wednes	-4961
▁records	-4962
▁Ve	-4963
▁fuel	-4964
▁crack	-4965
▁flu	-4966
▁storm	-4967
abilities	-4968
top	-4969
▁fort	-4970
ais	-4971
▁flight	-4972
▁alive	-4973
▁essay	-4974
▁bread	-4975
claim	-4976
▁moments	-4977
rical	-4978
▁journal	-4979
▁hide	-4980
▁consid	-4981
gl	-4982
outhern	-4983
▁responsibility	-4984
rary	-4985
▁sources	-4986
▁stuck	-4987
▁notes	-4988
▁delight	-4989
▁Wood	-4990
▁freed	-4991
▁Form	-4992
▁theme	-4993
▁bottle	-4994
▁anx	-4995
▁nose	-4996
▁Director	-4997
▁district	-4998
▁bowl	-4999
▁proceed	-5000
▁somewhere	-5001
▁forth	-5002
▁units	-5003
▁mountain	-5004
▁apartment	-5005
no	-5006
▁none	-5007
▁documents	-5008
▁estim	-5009
▁destroy	-5010
rier	-5011
going	-5012
ita	-5013
▁claims	-5014
▁Custom	-5015
▁sharp	-5016
ossible	-5017
▁forced	-5018
▁relationships	-5019
▁Keep	-5020
▁compar	-5021
▁optim	-5022
▁curious	-5023
iration	-5024
▁happening	-5025
ingly	-5026
erry	-5027
▁Win	-5028
nect	-5029
▁gentle	-5030
▁forever	-5031
▁Mike	-5032
▁Read	-5033
hab	-5034
soft	-5035
▁eth	-5036
▁Camp	-5037
udd	-5038
▁Top	-5039
▁boo	-5040
▁valid	-5041
▁perfectly	-5042
ano	-5043
▁Apple	-5044
▁diagn	-5045
ST	-5046
▁talked	-5047
▁federal	-5048
▁discussion	-5049
▁recip	-5050
▁Science	-5051
▁bless	-5052
▁Det	-5053
▁Tuesday	-5054
▁Wr	-5055
▁residents	-5056
!!!	-5057
▁occup	-5058
pered	-5059
osis	-5060
rip	-5061
apes	-5062
▁brows	-5063
ighter	-5064
▁taught	-5065
▁AP	-5066
igg	-5067
▁Est	-5068
▁birthday	-5069
▁wondered	-5070
▁Elect	-5071
▁bringing	-5072
▁importance	-5073
▁Thursday	-5074
▁usual	-5075
▁leadership	-5076
▁leads	-5077
owing	-5078
▁opinion	-5079
azine	-5080
win	-5081
rete	-5082
istan	-5083
▁vent	-5084
resp	-5085
▁datab	-5086
arge	-5087
▁accepted	-5088
▁rule	-5089
▁fantastic	-5090
ora	-5091
▁buildings	-5092
ection	-5093
▁dyn	-5094
▁negative	-5095
▁cities	-5096
▁maximum	-5097
▁alternative	-5098
▁Arch	-5099
eed	-5100
Not	-5101
▁headed	-5102
▁silver	-5103
▁casino	-5104
▁spark	-5105
amin	-5106
▁ingredients	-5107
lyn	-5108
▁senior	-5109
▁dogs	-5110
▁signs	-5111
▁videos	-5112
word	-5113
cohol	-5114
▁prepare	-5115
▁jack	-5116
▁Mexic	-5117
anged	-5118
▁Year	-5119
▁planet	-5120
▁underst	-5121
▁Trump	-5122
▁Cap	-5123
▁Wednesday	-5124
▁German	-5125
▁spr	-5126
▁previously	-5127
ias	-5128
▁worksh	-5129
▁Ze	-5130
▁courses	-5131
asp	-5132
▁emp	-5133
▁topic	-5134
▁thin	-5135
▁asks	-5136
▁awesome	-5137
▁sac	-5138
▁Public	-5139
estic	-5140
▁element	-5141
??	-5142
EMAIL	-5143
▁shirt	-5144
▁coverage	-5145
▁outdoor	-5146
▁Mrs	-5147
▁Bur	-5148
▁liqu	-5149
▁deck	-5150
▁tears	-5151
tion	-5152
▁centre	-5153
▁slide	-5154
▁Through	-5155
point	-5156
▁processing	-5157
▁raise	-5158
▁odd	-5159
▁concerned	-5160
▁stared	-5161
▁exchange	-5162
▁disappoint	-5163
▁generation	-5164
▁blocks	-5165
▁transm	-5166
▁vehicles	-5167
aser	-5168
plate	-5169
▁Tor	-5170
essions	-5171
▁recipe	-5172
ampions	-5173
▁cris	-5174
▁quant	-5175
▁novel	-5176
▁stom	-5177
▁Ma	-5178
▁Vir	-5179
ulous	-5180
▁pill	-5181
▁pure	-5182
gery	-5183
▁mirr	-5184
▁cro	-5185
▁joint	-5186
▁influence	-5187
▁Robert	-5188
▁adapt	-5189
▁Charl	-5190
▁lesson	-5191
▁Education	-5192
▁symbol	-5193
▁grown	-5194
terday	-5195
▁bat	-5196
▁markets	-5197
▁fro	-5198
▁config	-5199
itable	-5200
▁Bas	-5201
tle	-5202
▁circumst	-5203
▁movies	-5204
▁facility	-5205
▁USA	-5206
▁houses	-5207
▁milk	-5208
▁Old	-5209
▁panel	-5210
▁internal	-5211
▁Project	-5212
▁youth	-5213
▁Social	-5214
lor	-5215
▁assistance	-5216
▁hidden	-5217
▁bac	-5218
▁react	-5219
▁sym	-5220
▁Engine	-5221
awn	-5222
▁Adm	-5223
▁lad	-5224
▁Div	-5225
rible	-5226
rate	-5227
rim	-5228
▁reference	-5229
▁fellow	-5230
▁Franc	-5231
▁buck	-5232
▁hoping	-5233
ours	-5234
teen	-5235
▁rapid	-5236
▁ment	-5237
▁flying	-5238
▁injury	-5239
▁meat	-5240
ini	-5241
met	-5242
▁Online	-5243
▁shouted	-5244
▁confidence	-5245
icon	-5246
▁leather	-5247
▁spiritual	-5248
gen	-5249
▁shiny	-5250
▁Scott	-5251
▁corporate	-5252
▁Jen	-5253
orthern	-5254
▁Wall	-5255
▁artists	-5256
▁answers	-5257
you	-5258
▁dust	-5259
▁fighting	-5260
Sh	-5261
▁Does	-5262
▁motiv	-5263
▁minimum	-5264
▁cheese	-5265
▁environmental	-5266
▁Fur	-5267
▁Const	-5268
▁rough	-5269
Yeah	-5270
▁serving	-5271
▁context	-5272
▁witness	-5273
▁PR	-5274
▁France	-5275
ructure	-5276
ppy	-5277
▁appearance	-5278
cher	-5279
bel	-5280
life	-5281
lls	-5282
▁Jour	-5283
▁labor	-5284
▁bon	-5285
▁Sand	-5286
▁chosen	-5287
▁female	-5288
umin	-5289
▁phil	-5290
▁Tem	-5291
▁policies	-5292
▁Pay	-5293
▁recommended	-5294
▁bond	-5295
▁laun	-5296
▁Music	-5297
▁construct	-5298
▁sin	-5299
▁sport	-5300
▁Vict	-5301
▁occasion	-5302
▁Fire	-5303
▁appreciate	-5304
issions	-5305
do	-5306
▁Commission	-5307
▁installation	-5308
▁wealth	-5309
▁posts	-5310
▁chocolate	-5311
▁vib	-5312
▁introduced	-5313
▁Hen	-5314
▁upgr	-5315
▁orders	-5316
paper	-5317
▁Special	-5318
▁Spirit	-5319
▁delivered	-5320
cipl	-5321
▁Di	-5322
wing	-5323
▁detailed	-5324
▁feelings	-5325
▁ru	-5326
▁wid	-5327
▁pleased	-5328
ciples	-5329
inding	-5330
IM	-5331
▁Thomas	-5332
▁stores	-5333
▁comprehens	-5334
▁kinds	-5335
▁predict	-5336
▁@	-5337
OW	-5338
ateful	-5339
LE	-5340
▁mere	-5341
▁obvious	-5342
▁prison	-5343
▁planned	-5344
▁debt	-5345
▁chemical	-5346
▁AM	-5347
▁television	-5348
▁concerns	-5349
▁narrow	-5350
leep	-5351
▁Tre	-5352
▁Smith	-5353
DA	-5354
▁committed	-5355
IV	-5356
▁specifically	-5357
yan	-5358
▁ancient	-5359
▁apparent	-5360
▁Central	-5361
▁locations	-5362
▁Jud	-5363
▁fields	-5364
▁Development	-5365
▁Sen	-5366
oured	-5367
▁listening	-5368
▁combined	-5369
ograp	-5370
▁Commit	-5371
made	-5372
▁valuable	-5373
otes	-5374
▁Chic	-5375
▁compos	-5376
▁pump	-5377
asts	-5378
▁hom	-5379
▁paying	-5380
▁approximately	-5381
usher	-5382
▁saved	-5383
▁vote	-5384
water	-5385
▁installed	-5386
▁intended	-5387
iest	-5388
▁tough	-5389
under	-5390
▁Carol	-5391
▁tonight	-5392
▁effic	-5393
▁princ	-5394
▁creation	-5395
▁theory	-5396
▁Note	-5397
▁agency	-5398
olic	-5399
▁pond	-5400
apped	-5401
Look	-5402
▁crazy	-5403
▁components	-5404
▁aspects	-5405
▁fees	-5406
▁choices	-5407
▁remained	-5408
▁shel	-5409
▁suggested	-5410
▁bodies	-5411
▁grin	-5412
▁summ	-5413
▁suitable	-5414
▁basket	-5415
▁stated	-5416
▁depos	-5417
born	-5418
▁typically	-5419
▁practical	-5420
▁Government	-5421
▁twice	-5422
fol	-5423
unction	-5424
▁bug	-5425
▁failed	-5426
▁dial	-5427
▁Sk	-5428
▁victim	-5429
▁believed	-5430
▁emergency	-5431
aks	-5432
hus	-5433
▁Press	-5434
▁remaining	-5435
eless	-5436
ev	-5437
▁Build	-5438
ups	-5439
andom	-5440
▁winning	-5441
ching	-5442
▁ID	-5443
▁elim	-5444
mosp	-5445
ighed	-5446
▁cooking	-5447
▁CD	-5448
▁hill	-5449
▁automatically	-5450
itics	-5451
▁Jon	-5452
▁Jose	-5453
▁dish	-5454
▁indeed	-5455
▁belief	-5456
itate	-5457
▁escape	-5458
▁Stand	-5459
▁sty	-5460
▁hang	-5461
▁chain	-5462
ugg	-5463
▁incredible	-5464
▁Cas	-5465
▁tone	-5466
▁swing	-5467
▁goods	-5468
▁depending	-5469
▁funding	-5470
▁strategies	-5471
rid	-5472
poses	-5473
TS	-5474
▁survey	-5475
lets	-5476
▁lucky	-5477
▁Step	-5478
▁signed	-5479
inations	-5480
▁everywhere	-5481
▁Att	-5482
▁adults	-5483
▁sli	-5484
▁registered	-5485
appy	-5486
▁rail	-5487
han	-5488
van	-5489
▁diam	-5490
▁impossible	-5491
▁surrounding	-5492
▁AC	-5493
▁Amazon	-5494
▁esc	-5495
▁weren	-5496
▁battery	-5497
▁consequ	-5498
obe	-5499
▁obt	-5500
otic	-5501
▁restrict	-5502
ache	-5503
orough	-5504
▁trial	-5505
▁officer	-5506
▁chicken	-5507
▁hundreds	-5508
een	-5509
▁industrial	-5510
▁sequ	-5511
▁photograph	-5512
phas	-5513
umber	-5514
fin	-5515
▁Data	-5516
▁Father	-5517
▁lie	-5518
▁evil	-5519
▁sque	-5520
▁begins	-5521
▁crim	-5522
hetic	-5523
▁yard	-5524
▁interior	-5525
▁coast	-5526
▁Long	-5527
▁Start	-5528
bye	-5529
isher	-5530
ucle	-5531
ala	-5532
fa	-5533
▁formed	-5534
▁error	-5535
▁faces	-5536
iveness	-5537
▁volume	-5538
nov	-5539
▁Real	-5540
▁rab	-5541
▁Dri	-5542
rd	-5543
▁entertain	-5544
▁tro	-5545
▁ordered	-5546
opy	-5547
▁instance	-5548
▁shoot	-5549
orter	-5550
▁rolled	-5551
▁conflic	-5552
▁supported	-5553
▁dollars	-5554
▁Therefore	-5555
PA	-5556
▁resol	-5557
▁trading	-5558
andon	-5559
▁Second	-5560
▁reliable	-5561
▁Mot	-5562
▁chat	-5563
acle	-5564
▁forces	-5565
▁holds	-5566
avig	-5567
▁rare	-5568
▁humans	-5569
ems	-5570
▁Wil	-5571
▁matters	-5572
▁arg	-5573
▁accounts	-5574
▁massive	-5575
alian	-5576
▁spin	-5577
▁mad	-5578
▁silence	-5579
▁functions	-5580
oration	-5581
outs	-5582
▁climate	-5583
▁searching	-5584
elly	-5585
ria	-5586
ums	-5587
rist	-5588
hi	-5589
▁agent	-5590
▁Foundation	-5591
▁hyd	-5592
▁wave	-5593
▁thinks	-5594
▁academic	-5595
edy	-5596
▁pil	-5597
iters	-5598
▁Germany	-5599
bles	-5600
▁Mont	-5601
▁articles	-5602
▁salt	-5603
▁colle	-5604
▁enhance	-5605
▁greatest	-5606
▁remote	-5607
▁category	-5608
▁cultural	-5609
▁inspired	-5610
▁purposes	-5611
▁Bible	-5612
▁obtain	-5613
▁cutting	-5614
▁Hill	-5615
inating	-5616
▁updated	-5617
▁understood	-5618
▁Academ	-5619
▁covers	-5620
▁ate	-5621
▁gate	-5622
▁id	-5623
▁painting	-5624
▁align	-5625
prise	-5626
▁Brown	-5627
▁Enter	-5628
▁AS	-5629
▁vir	-5630
▁threw	-5631
▁fulf	-5632
isco	-5633
▁schol	-5634
▁seeking	-5635
▁lake	-5636
▁tables	-5637
▁Community	-5638
▁Follow	-5639
▁Set	-5640
▁cried	-5641
bre	-5642
▁Information	-5643
▁du	-5644
▁recognized	-5645
▁minor	-5646
alls	-5647
alled	-5648
▁Den	-5649
▁considering	-5650
uts	-5651
▁profile	-5652
▁Perhaps	-5653
▁neighborhood	-5654
▁visiting	-5655
▁drove	-5656
._	-5657
▁mode	-5658
spe	-5659
▁guest	-5660
▁freedom	-5661
▁atmosp	-5662
▁Cy	-5663
▁Beach	-5664
with	-5665
▁CH	-5666
▁Food	-5667
▁university	-5668
▁Rad	-5669
▁Offic	-5670
hand	-5671
ario	-5672
▁affordable	-5673
▁competitive	-5674
▁beside	-5675
lishing	-5676
▁Dou	-5677
▁Mer	-5678
▁remark	-5679
▁promote	-5680
▁diss	-5681
▁epis	-5682
hone	-5683
▁sam	-5684
▁Come	-5685
orney	-5686
host	-5687
▁relief	-5688
▁Download	-5689
▁gently	-5690
▁OF	-5691
▁elev	-5692
▁Society	-5693
berg	-5694
▁rear	-5695
aren	-5696
bal	-5697
▁dreams	-5698
▁confident	-5699
▁failure	-5700
▁instructions	-5701
▁upper	-5702
▁interests	-5703
IA	-5704
ez	-5705
▁aside	-5706
▁causes	-5707
▁Committee	-5708
▁Still	-5709
▁keeps	-5710
▁Yet	-5711
ua	-5712
▁alcohol	-5713
▁hes	-5714
ste	-5715
▁expertise	-5716
iner	-5717
▁hoped	-5718
ibilities	-5719
▁script	-5720
▁ec	-5721
▁hero	-5722
▁Valley	-5723
▁treated	-5724
▁Spot	-5725
▁measures	-5726
▁stomach	-5727
▁District	-5728
▁Security	-5729
▁entirely	-5730
▁technologies	-5731
rics	-5732
▁sheet	-5733
▁lock	-5734
▁provider	-5735
▁aid	-5736
▁bench	-5737
▁bridge	-5738
▁cute	-5739
▁perspective	-5740
Are	-5741
▁tests	-5742
press	-5743
As	-5744
▁Nor	-5745
May	-5746
▁poly	-5747
▁Using	-5748
po	-5749
▁ven	-5750
▁simpl	-5751
▁employee	-5752
yard	-5753
'.	-5754
▁male	-5755
▁route	-5756
▁Jac	-5757
▁coat	-5758
OD	-5759
▁input	-5760
▁judge	-5761
Re	-5762
▁height	-5763
▁ir	-5764
▁flag	-5765
ether	-5766
▁Which	-5767
▁Dev	-5768
▁stands	-5769
isters	-5770
▁sink	-5771
▁sympt	-5772
▁nurs	-5773
▁Hol	-5774
▁constantly	-5775
urt	-5776
▁coord	-5777
▁writer	-5778
▁readers	-5779
▁Atl	-5780
▁legisl	-5781
which	-5782
▁unable	-5783
clusion	-5784
▁por	-5785
▁circumstances	-5786
▁Ber	-5787
▁Microsoft	-5788
▁pad	-5789
▁sole	-5790
inger	-5791
▁memories	-5792
▁fuck	-5793
▁confirm	-5794
▁crew	-5795
▁pretend	-5796
▁Mic	-5797
▁beer	-5798
▁Union	-5799
▁Mommy	-5800
atin	-5801
▁shipping	-5802
▁heads	-5803
▁Would	-5804
▁feedback	-5805
▁About	-5806
▁garage	-5807
▁pleasure	-5808
▁ends	-5809
azz	-5810
▁Cat	-5811
▁wooden	-5812
aid	-5813
agon	-5814
▁improved	-5815
IR	-5816
▁plays	-5817
▁ped	-5818
▁layer	-5819
▁Western	-5820
▁Chris	-5821
▁examples	-5822
▁Victor	-5823
▁license	-5824
reens	-5825
▁decre	-5826
aud	-5827
▁Party	-5828
▁participants	-5829
▁reward	-5830
▁plug	-5831
▁Twitter	-5832
▁Card	-5833
aration	-5834
▁register	-5835
Okay	-5836
▁Mass	-5837
oga	-5838
▁Test	-5839
▁chart	-5840
▁Exper	-5841
▁UN	-5842
▁susp	-5843
▁Dar	-5844
▁cookies	-5845
▁Ham	-5846
▁flash	-5847
rastructure	-5848
owed	-5849
▁stro	-5850
▁Having	-5851
▁brands	-5852
▁heaven	-5853
LC	-5854
▁ease	-5855
▁foods	-5856
icked	-5857
▁announce	-5858
▁Mat	-5859
▁Fil	-5860
▁entrance	-5861
isa	-5862
▁Though	-5863
▁Town	-5864
▁oblig	-5865
▁database	-5866
▁Further	-5867
▁coach	-5868
▁IP	-5869
▁km	-5870
▁grade	-5871
▁Canad	-5872
▁grateful	-5873
▁citizens	-5874
▁whenever	-5875
▁shoulders	-5876
▁emphas	-5877
▁Color	-5878
▁effectively	-5879
▁therapy	-5880
hent	-5881
▁spons	-5882
▁Person	-5883
▁Pan	-5884
▁Chicago	-5885
▁resource	-5886
▁mouse	-5887
▁Ken	-5888
▁promised	-5889
▁TO	-5890
▁Organ	-5891
▁housing	-5892
▁Japanese	-5893
▁owned	-5894
▁scientific	-5895
▁Bi	-5896
▁extensive	-5897
▁lighting	-5898
▁Hope	-5899
ifications	-5900
▁factor	-5901
▁approved	-5902
▁African	-5903
uated	-5904
▁extended	-5905
▁Ver	-5906
ensions	-5907
▁dating	-5908
▁assemb	-5909
▁yesterday	-5910
▁innovative	-5911
asant	-5912
athered	-5913
▁reduced	-5914
▁restaurants	-5915
▁bun	-5916
▁nine	-5917
▁Know	-5918
xy	-5919
gers	-5920
oul	-5921
▁revealed	-5922
▁shock	-5923
ta	-5924
▁capable	-5925
▁falling	-5926
▁mixed	-5927
▁facing	-5928
▁shouldn	-5929
▁audio	-5930
▁Review	-5931
▁Gen	-5932
▁comprehensive	-5933
▁yours	-5934
▁Gal	-5935
▁univers	-5936
▁purchased	-5937
▁warn	-5938
▁drawing	-5939
▁Plus	-5940
▁passing	-5941
▁enable	-5942
▁surf	-5943
▁closely	-5944
▁emotional	-5945
▁launched	-5946
▁mal	-5947
▁educational	-5948
estyle	-5949
ownt	-5950
▁Lim	-5951
▁perman	-5952
▁reput	-5953
▁portion	-5954
▁NOT	-5955
oosing	-5956
▁recru	-5957
▁younger	-5958
▁Kore	-5959
▁patterns	-5960
▁noted	-5961
nam	-5962
BS	-5963
▁Prov	-5964
▁intr	-5965
fection	-5966
▁philos	-5967
lands	-5968
▁ocean	-5969
itionally	-5970
oses	-5971
▁authority	-5972
▁regularly	-5973
▁fal	-5974
▁Little	-5975
umbled	-5976
▁AL	-5977
▁Team	-5978
▁enthus	-5979
▁barely	-5980
▁west	-5981
▁medicine	-5982
▁letters	-5983
umps	-5984
▁output	-5985
BA	-5986
▁Dra	-5987
▁Sue	-5988
▁pregn	-5989
irmed	-5990
▁surgery	-5991
▁commitment	-5992
▁Ide	-5993
▁tickets	-5994
▁rom	-5995
▁acknow	-5996
▁religious	-5997
▁trained	-5998
▁fourth	-5999
ifted	-6000
ogue	-6001
▁papers	-6002
she	-6003
▁thread	-6004
▁opposite	-6005
fortunately	-6006
▁deals	-6007
CA	-6008
▁whispered	-6009
▁machines	-6010
▁sample	-6011
▁Product	-6012
▁Inte	-6013
▁charges	-6014
▁marriage	-6015
SA	-6016
▁bags	-6017
▁decades	-6018
▁Ell	-6019
▁drugs	-6020
can	-6021
▁extract	-6022
upid	-6023
▁tasks	-6024
▁supporting	-6025
▁chose	-6026
▁laid	-6027
▁wash	-6028
▁Family	-6029
▁affected	-6030
equ	-6031
▁Centre	-6032
▁throat	-6033
▁administration	-6034
mail	-6035
▁supplies	-6036
▁Minister	-6037
▁Rose	-6038
▁guarantee	-6039
▁advertising	-6040
▁smoke	-6041
▁conscious	-6042
▁spok	-6043
▁tor	-6044
▁electronic	-6045
▁engineering	-6046
▁Journal	-6047
▁wise	-6048
gage	-6049
▁Daniel	-6050
RA	-6051
▁Head	-6052
▁recovery	-6053
▁Russian	-6054
while	-6055
arian	-6056
▁speech	-6057
▁vary	-6058
▁Holy	-6059
▁teen	-6060
▁Congress	-6061
▁convenient	-6062
▁messages	-6063
▁Technology	-6064
▁Right	-6065
▁PM	-6066
▁lying	-6067
▁identified	-6068
▁wished	-6069
▁procedure	-6070
cont	-6071
▁plane	-6072
▁losing	-6073
lessly	-6074
▁mirror	-6075
▁settings	-6076
▁Isl	-6077
▁channel	-6078
▁researc	-6079
▁consumer	-6080
▁label	-6081
▁Despite	-6082
▁arrest	-6083
▁Three	-6084
▁orange	-6085
▁consumers	-6086
▁enjoying	-6087
▁End	-6088
____	-6089
▁ast	-6090
▁moon	-6091
aturing	-6092
▁invited	-6093
▁vast	-6094
▁hate	-6095
▁List	-6096
apos	-6097
▁flood	-6098
▁monit	-6099
▁Dig	-6100
▁sizes	-6101
ixture	-6102
Good	-6103
▁streets	-6104
▁gear	-6105
▁advis	-6106
▁terror	-6107
oti	-6108
▁accurate	-6109
▁premium	-6110
▁assets	-6111
respond	-6112
▁boss	-6113
▁Virgin	-6114
▁receiving	-6115
);	-6116
▁Museum	-6117
worth	-6118
▁blind	-6119
▁rank	-6120
▁excess	-6121
▁Italian	-6122
enger	-6123
pass	-6124
▁prove	-6125
▁providers	-6126
iat	-6127
▁Very	-6128
▁Contact	-6129
ulty	-6130
▁Never	-6131
lled	-6132
inder	-6133
▁Louis	-6134
▁Span	-6135
▁carrying	-6136
▁Android	-6137
▁Democr	-6138
▁household	-6139
▁Human	-6140
▁distinct	-6141
▁spaces	-6142
▁illustr	-6143
▁Asia	-6144
▁severe	-6145
▁signal	-6146
vention	-6147
▁liquid	-6148
CH	-6149
▁Arab	-6150
alend	-6151
lder	-6152
▁duck	-6153
▁skill	-6154
▁Kat	-6155
▁random	-6156
▁unlike	-6157
ilst	-6158
▁recorded	-6159
▁hungry	-6160
▁depth	-6161
▁waved	-6162
▁equal	-6163
▁giant	-6164
izz	-6165
▁monthly	-6166
▁warrant	-6167
▁Haw	-6168
▁ath	-6169
▁Land	-6170
road	-6171
▁awareness	-6172
▁destination	-6173
▁Looking	-6174
▁presentation	-6175
orable	-6176
▁involve	-6177
▁frag	-6178
abled	-6179
▁oven	-6180
case	-6181
iah	-6182
▁relatively	-6183
▁attached	-6184
▁Aud	-6185
▁sauce	-6186
▁impressive	-6187
▁situations	-6188
▁airport	-6189
▁hook	-6190
▁succeed	-6191
nic	-6192
aints	-6193
▁Hotel	-6194
▁Australian	-6195
▁upset	-6196
▁reasonable	-6197
▁Jeff	-6198
▁Invest	-6199
▁thousand	-6200
▁updates	-6201
lo	-6202
▁significantly	-6203
▁leaned	-6204
▁clinical	-6205
uls	-6206
▁pra	-6207
▁checked	-6208
▁participate	-6209
▁recognize	-6210
real	-6211
haust	-6212
▁Award	-6213
▁obviously	-6214
▁boost	-6215
▁Richard	-6216
▁san	-6217
▁Wal	-6218
▁goodbye	-6219
ester	-6220
▁duty	-6221
ashing	-6222
▁administr	-6223
▁nervous	-6224
▁touched	-6225
▁manufacturing	-6226
onna	-6227
▁proposed	-6228
ensity	-6229
▁mel	-6230
▁ceiling	-6231
▁objects	-6232
▁fool	-6233
▁topics	-6234
burg	-6235
▁inches	-6236
▁heav	-6237
▁protein	-6238
▁stir	-6239
▁Paris	-6240
▁Los	-6241
▁thorough	-6242
▁Es	-6243
▁vit	-6244
▁luxury	-6245
▁external	-6246
▁Unfortunately	-6247
td	-6248
▁Son	-6249
▁renew	-6250
▁darkness	-6251
▁officials	-6252
▁issued	-6253
▁Gar	-6254
▁conver	-6255
▁Hell	-6256
rated	-6257
▁drivers	-6258
▁Cre	-6259
vy	-6260
igan	-6261
itory	-6262
▁listened	-6263
ogether	-6264
▁tut	-6265
▁ears	-6266
▁climb	-6267
▁resolution	-6268
▁Cath	-6269
▁sighed	-6270
▁wake	-6271
▁landscape	-6272
lock	-6273
▁defined	-6274
▁atmosphere	-6275
▁historical	-6276
▁distribution	-6277
▁fishing	-6278
▁identity	-6279
▁tub	-6280
▁Martin	-6281
nergy	-6282
▁League	-6283
▁inner	-6284
▁Indust	-6285
▁causing	-6286
DF	-6287
▁Without	-6288
▁Sus	-6289
▁efficiency	-6290
▁Tour	-6291
▁gifts	-6292
aturally	-6293
▁Steve	-6294
▁routine	-6295
prene	-6296
▁Capt	-6297
cluding	-6298
atre	-6299
▁Wel	-6300
▁revenue	-6301
▁prompt	-6302
Ne	-6303
ira	-6304
mond	-6305
▁soil	-6306
▁ticket	-6307
▁symptoms	-6308
▁Again	-6309
▁favourite	-6310
da	-6311
▁manual	-6312
▁organic	-6313
▁worst	-6314
▁Turn	-6315
oh	-6316
▁Medical	-6317
▁Oper	-6318
▁sessions	-6319
▁poll	-6320
▁brill	-6321
▁protected	-6322
▁Sel	-6323
▁hanging	-6324
▁Thus	-6325
uing	-6326
▁rental	-6327
▁appointment	-6328
elines	-6329
▁saving	-6330
▁voc	-6331
▁existence	-6332
▁concrete	-6333
ello	-6334
▁info	-6335
▁string	-6336
▁shift	-6337
reprene	-6338
▁navig	-6339
▁infrastructure	-6340
▁tank	-6341
▁frequently	-6342
▁swimming	-6343
▁Lee	-6344
▁stairs	-6345
uting	-6346
▁sword	-6347
▁AND	-6348
▁Pub	-6349
▁visited	-6350
▁somehow	-6351
▁honey	-6352
bow	-6353
OP	-6354
▁normally	-6355
kins	-6356
rage	-6357
▁apps	-6358
▁solar	-6359
▁auto	-6360
▁charged	-6361
▁Show	-6362
TER	-6363
II	-6364
▁degrees	-6365
▁guitar	-6366
▁shares	-6367
related	-6368
▁studio	-6369
▁confused	-6370
bled	-6371
▁NY	-6372
▁Americans	-6373
stal	-6374
▁Lead	-6375
icial	-6376
ura	-6377
▁Creat	-6378
▁gaze	-6379
SS	-6380
▁positions	-6381
▁neither	-6382
▁nom	-6383
▁sending	-6384
▁Hosp	-6385
▁ange	-6386
▁sne	-6387
▁seriously	-6388
▁typical	-6389
▁Amy	-6390
uits	-6391
▁crime	-6392
pack	-6393
▁cycle	-6394
▁Way	-6395
that	-6396
▁weapons	-6397
▁Being	-6398
▁Hi	-6399
▁Mach	-6400
▁possibility	-6401
▁Lab	-6402
poration	-6403
orted	-6404
▁invent	-6405
▁meetings	-6406
▁dirt	-6407
▁handed	-6408
▁organized	-6409
▁repeated	-6410
▁couch	-6411
▁proof	-6412
iors	-6413
▁gotten	-6414
▁successfully	-6415
▁lifted	-6416
▁election	-6417
▁Ill	-6418
▁procedures	-6419
▁wondering	-6420
▁Roman	-6421
▁cooper	-6422
▁!	-6423
ras	-6424
▁Children	-6425
anges	-6426
▁contrast	-6427
▁replaced	-6428
▁suffering	-6429
▁constant	-6430
amber	-6431
▁compr	-6432
▁collected	-6433
▁foundation	-6434
▁chapter	-6435
▁informed	-6436
▁habit	-6437
stone	-6438
▁drinking	-6439
athan	-6440
▁phase	-6441
▁contemporary	-6442
▁clothing	-6443
▁Women	-6444
eding	-6445
▁beneath	-6446
▁Log	-6447
▁relie	-6448
▁frown	-6449
▁harder	-6450
cue	-6451
▁Pass	-6452
▁dism	-6453
▁Russia	-6454
uine	-6455
▁east	-6456
▁registration	-6457
▁Prote	-6458
▁engage	-6459
▁HD	-6460
▁correspond	-6461
hew	-6462
▁Squ	-6463
ulating	-6464
▁Adv	-6465
▁defense	-6466
▁Table	-6467
▁split	-6468
▁classroom	-6469
▁anger	-6470
▁eleg	-6471
▁Chief	-6472
IF	-6473
mes	-6474
▁Try	-6475
ensed	-6476
▁heading	-6477
▁delay	-6478
whel	-6479
ician	-6480
▁tent	-6481
▁Royal	-6482
▁syn	-6483
eline	-6484
cho	-6485
▁pig	-6486
▁alle	-6487
▁woods	-6488
rick	-6489
aws	-6490
▁assessment	-6491
▁Canadian	-6492
▁Fred	-6493
▁iPhone	-6494
▁acid	-6495
▁Spring	-6496
▁trend	-6497
▁mic	-6498
ani	-6499
cling	-6500
pel	-6501
▁Everything	-6502
▁anticip	-6503
▁officers	-6504
▁sleeping	-6505
▁wis	-6506
▁returns	-6507
▁View	-6508
▁lift	-6509
ource	-6510
▁mini	-6511
▁grace	-6512
▁tong	-6513
▁museum	-6514
▁everyday	-6515
▁mood	-6516
▁mum	-6517
▁embr	-6518
▁privacy	-6519
▁Kar	-6520
▁replacement	-6521
▁dur	-6522
west	-6523
▁mistake	-6524
irms	-6525
▁Soft	-6526
▁glanced	-6527
▁description	-6528
Hey	-6529
▁golf	-6530
▁wrapped	-6531
▁substant	-6532
▁Sign	-6533
▁domain	-6534
▁column	-6535
’.	-6536
▁Global	-6537
▁stupid	-6538
▁Bell	-6539
▁tip	-6540
▁facil	-6541
▁agents	-6542
▁Arts	-6543
▁Network	-6544
▁shru	-6545
▁hire	-6546
ii	-6547
▁vacation	-6548
rum	-6549
▁payments	-6550
orgeous	-6551
▁possess	-6552
pes	-6553
umes	-6554
▁Spanish	-6555
▁Ext	-6556
▁fasc	-6557
▁Billy	-6558
▁gathered	-6559
▁Full	-6560
▁profit	-6561
▁discussed	-6562
▁wanting	-6563
▁boxes	-6564
▁lessons	-6565
rad	-6566
▁vs	-6567
berry	-6568
▁loose	-6569
▁Walk	-6570
▁celebrate	-6571
▁supports	-6572
▁Remember	-6573
▁Far	-6574
▁Van	-6575
▁exhaust	-6576
eared	-6577
rm	-6578
▁solve	-6579
▁Students	-6580
▁stronger	-6581
▁satisfact	-6582
enced	-6583
▁icon	-6584
▁hardware	-6585
▁worldwide	-6586
▁reaction	-6587
▁Tommy	-6588
▁silent	-6589
▁chief	-6590
▁irr	-6591
▁Nick	-6592
▁moves	-6593
Where	-6594
▁precise	-6595
▁letting	-6596
EE	-6597
▁arrive	-6598
▁Gra	-6599
orses	-6600
▁retire	-6601
uge	-6602
▁Learn	-6603
▁knife	-6604
▁investors	-6605
▁pipe	-6606
▁nucle	-6607
▁eggs	-6608
▁intent	-6609
▁Mexico	-6610
▁candidates	-6611
▁branch	-6612
▁Living	-6613
iot	-6614
greg	-6615
▁personally	-6616
pret	-6617
cuit	-6618
▁Queen	-6619
▁entertainment	-6620
▁Hand	-6621
▁Equ	-6622
▁flexible	-6623
▁bone	-6624
PR	-6625
▁Author	-6626
▁institutions	-6627
▁EU	-6628
▁draft	-6629
erts	-6630
▁rein	-6631
▁dealing	-6632
▁improvement	-6633
▁vital	-6634
▁locked	-6635
▁Secret	-6636
▁guidance	-6637
▁fairly	-6638
▁Kim	-6639
sters	-6640
away	-6641
va	-6642
▁studied	-6643
▁Such	-6644
▁conducted	-6645
OV	-6646
▁bite	-6647
▁Should	-6648
▁Fair	-6649
▁dram	-6650
▁Ce	-6651
▁Adam	-6652
▁CEO	-6653
▁unus	-6654
▁honor	-6655
fly	-6656
▁Jew	-6657
iform	-6658
▁defend	-6659
▁employment	-6660
▁mainly	-6661
▁monitor	-6662
▁Academy	-6663
▁agencies	-6664
▁rabbit	-6665
▁dressed	-6666
▁constit	-6667
▁creates	-6668
▁Four	-6669
gent	-6670
▁hyp	-6671
▁pulling	-6672
▁Main	-6673
aping	-6674
▁Cert	-6675
▁wound	-6676
▁Bes	-6677
emon	-6678
▁Ray	-6679
▁Link	-6680
▁authent	-6681
▁tab	-6682
▁Ash	-6683
▁Media	-6684
▁puts	-6685
▁lifestyle	-6686
▁Watch	-6687
▁cable	-6688
▁Du	-6689
eration	-6690
bell	-6691
▁Rev	-6692
erves	-6693
iments	-6694
▁singing	-6695
▁Series	-6696
lete	-6697
oking	-6698
▁soldiers	-6699
▁Bal	-6700
▁scan	-6701
▁ages	-6702
TA	-6703
▁veter	-6704
▁desper	-6705
▁Rest	-6706
All	-6707
▁risks	-6708
▁row	-6709
▁Henry	-6710
OC	-6711
▁challenging	-6712
▁clock	-6713
comes	-6714
▁finds	-6715
▁expectations	-6716
▁Mur	-6717
▁sear	-6718
cluded	-6719
omin	-6720
▁chairs	-6721
▁drawn	-6722
Now	-6723
▁moral	-6724
▁staying	-6725
▁describe	-6726
▁Ltd	-6727
▁prayer	-6728
▁staring	-6729
▁overwhel	-6730
▁Trust	-6731
▁violence	-6732
stery	-6733
▁absor	-6734
▁enemy	-6735
▁Ter	-6736
▁attractive	-6737
▁tiss	-6738
▁moist	-6739
▁submit	-6740
▁dear	-6741
▁wore	-6742
▁inspiration	-6743
▁exploring	-6744
▁stunning	-6745
weight	-6746
Ex	-6747
uality	-6748
▁regional	-6749
▁Andrew	-6750
▁param	-6751
▁somewhat	-6752
▁instant	-6753
▁dirty	-6754
▁Place	-6755
itage	-6756
amps	-6757
▁puzz	-6758
alle	-6759
▁talent	-6760
▁virtual	-6761
▁cock	-6762
Who	-6763
eries	-6764
▁cos	-6765
iana	-6766
▁Think	-6767
ingu	-6768
▁figures	-6769
▁smiling	-6770
▁Econom	-6771
▁castle	-6772
▁inch	-6773
abet	-6774
▁scar	-6775
▁Nov	-6776
▁native	-6777
▁editor	-6778
▁waves	-6779
▁Gall	-6780
▁Tri	-6781
▁emotions	-6782
▁Charles	-6783
▁choosing	-6784
▁Energy	-6785
▁Ep	-6786
oral	-6787
UT	-6788
▁vend	-6789
▁compens	-6790
ulf	-6791
iano	-6792
▁trave	-6793
▁shooting	-6794
▁filter	-6795
▁cow	-6796
▁nic	-6797
▁earned	-6798
▁investigation	-6799
▁Pac	-6800
▁Ire	-6801
iped	-6802
ancer	-6803
▁settled	-6804
LA	-6805
▁Middle	-6806
▁till	-6807
▁elig	-6808
▁frustr	-6809
▁magazine	-6810
▁charm	-6811
ey	-6812
▁attrib	-6813
▁sufficient	-6814
▁carbon	-6815
gend	-6816
▁climbed	-6817
atoes	-6818
▁mig	-6819
▁juice	-6820
ran	-6821
▁musical	-6822
icit	-6823
celer	-6824
ophy	-6825
ificate	-6826
▁false	-6827
▁Ol	-6828
▁Nic	-6829
▁Men	-6830
▁operate	-6831
ror	-6832
▁folks	-6833
▁serves	-6834
▁seats	-6835
vi	-6836
▁circle	-6837
▁programme	-6838
▁McC	-6839
eling	-6840
Al	-6841
▁Id	-6842
▁clar	-6843
▁auth	-6844
▁packed	-6845
▁featured	-6846
ava	-6847
gas	-6848
▁Eric	-6849
▁explan	-6850
▁executive	-6851
▁experiment	-6852
▁lip	-6853
▁evol	-6854
▁Manager	-6855
▁technique	-6856
Be	-6857
▁banks	-6858
▁integrated	-6859
▁achieved	-6860
▁arts	-6861
▁Lo	-6862
sm	-6863
icks	-6864
▁RE	-6865
▁formal	-6866
▁tested	-6867
▁lies	-6868
▁instrument	-6869
▁Pen	-6870
etime	-6871
▁pod	-6872
▁MP	-6873
irts	-6874
▁References	-6875
icians	-6876
achel	-6877
▁justice	-6878
orders	-6879
▁diverse	-6880
ba	-6881
▁rocks	-6882
▁MS	-6883
▁immediate	-6884
▁interface	-6885
▁NE	-6886
▁advoc	-6887
▁Conference	-6888
▁exclusive	-6889
▁genuine	-6890
▁coc	-6891
ENT	-6892
▁wings	-6893
▁engagement	-6894
alendar	-6895
▁Georg	-6896
▁default	-6897
▁Cost	-6898
▁army	-6899
▁History	-6900
▁Dam	-6901
heme	-6902
▁scholars	-6903
▁Wild	-6904
].	-6905
net	-6906
▁struggle	-6907
▁winner	-6908
▁pace	-6909
▁vul	-6910
▁magical	-6911
▁laughing	-6912
▁lapt	-6913
▁Scot	-6914
▁commission	-6915
▁border	-6916
▁styles	-6917
▁upcoming	-6918
▁healing	-6919
arrass	-6920
▁Ly	-6921
▁Ros	-6922
▁negoti	-6923
▁drew	-6924
aste	-6925
▁happily	-6926
▁expans	-6927
▁nutr	-6928
▁organis	-6929
▁visible	-6930
▁confirmed	-6931
▁directed	-6932
▁edition	-6933
idays	-6934
utch	-6935
▁alt	-6936
▁asleep	-6937
▁outstanding	-6938
▁Event	-6939
▁qualified	-6940
ucky	-6941
apping	-6942
▁Bed	-6943
otton	-6944
▁scheduled	-6945
▁universe	-6946
rency	-6947
▁CA	-6948
▁spray	-6949
▁deeper	-6950
nament	-6951
▁breaking	-6952
▁shops	-6953
▁seed	-6954
▁excite	-6955
▁meals	-6956
anna	-6957
▁Sir	-6958
inos	-6959
▁deploy	-6960
▁ON	-6961
▁deeply	-6962
▁photograp	-6963
▁accessible	-6964
▁fault	-6965
▁Sally	-6966
▁inqu	-6967
▁golden	-6968
▁tie	-6969
ulture	-6970
omy	-6971
▁rising	-6972
▁facts	-6973
▁distract	-6974
▁desired	-6975
For	-6976
▁Soon	-6977
▁domestic	-6978
▁tracks	-6979
▁downt	-6980
▁kit	-6981
▁dates	-6982
▁increases	-6983
An	-6984
▁zone	-6985
▁Cross	-6986
▁innovation	-6987
▁residential	-6988
▁campus	-6989
▁Sat	-6990
▁discipl	-6991
▁Ron	-6992
▁Jake	-6993
▁differences	-6994
▁implementation	-6995
▁quietly	-6996
▁pride	-6997
▁capture	-6998
▁exceed	-6999
▁regulations	-7000
▁bab	-7001
izza	-7002
▁rib	-7003
list	-7004
▁Access	-7005
▁electrical	-7006
▁AD	-7007
▁follows	-7008
▁unex	-7009
cover	-7010
anted	-7011
▁~	-7012
▁withd	-7013
▁fence	-7014
▁Cup	-7015
athy	-7016
▁knock	-7017
anned	-7018
▁transp	-7019
▁Cast	-7020
ellect	-7021
▁counsel	-7022
inent	-7023
car	-7024
▁Joseph	-7025
▁reaching	-7026
▁Fort	-7027
▁observed	-7028
▁Muslim	-7029
▁unknown	-7030
▁Administ	-7031
arters	-7032
▁Italy	-7033
▁mixture	-7034
▁savings	-7035
▁performing	-7036
▁reputation	-7037
▁Applic	-7038
▁consistent	-7039
▁index	-7040
_.	-7041
▁Festival	-7042
▁upload	-7043
▁Fund	-7044
▁weapon	-7045
▁Angeles	-7046
▁Small	-7047
▁Key	-7048
pends	-7049
▁embarrass	-7050
▁pm	-7051
▁resistance	-7052
essel	-7053
▁rig	-7054
▁drinks	-7055
▁muscle	-7056
▁boun	-7057
uction	-7058
▁warning	-7059
▁eager	-7060
▁Buy	-7061
▁faced	-7062
▁screw	-7063
ishment	-7064
▁crying	-7065
▁greet	-7066
▁admit	-7067
▁gorgeous	-7068
▁gray	-7069
▁victory	-7070
▁millions	-7071
iece	-7072
▁covering	-7073
▁Young	-7074
▁attacks	-7075
Maybe	-7076
▁obtained	-7077
▁weird	-7078
▁dishes	-7079
▁featuring	-7080
▁walks	-7081
▁sudden	-7082
▁hosting	-7083
gypt	-7084
▁regul	-7085
oston	-7086
▁acting	-7087
▁generate	-7088
▁Nothing	-7089
▁terrible	-7090
lymp	-7091
▁Police	-7092
▁incident	-7093
▁religion	-7094
▁monitoring	-7095
pat	-7096
aland	-7097
▁referred	-7098
▁vegetables	-7099
bi	-7100
front	-7101
▁recording	-7102
▁trig	-7103
itated	-7104
▁permission	-7105
▁creature	-7106
▁loving	-7107
▁networks	-7108
▁Boy	-7109
▁pressed	-7110
▁horses	-7111
ppers	-7112
aning	-7113
▁Sher	-7114
REE	-7115
▁unw	-7116
▁criminal	-7117
▁healthcare	-7118
oster	-7119
▁Mother	-7120
▁Enjoy	-7121
▁originally	-7122
▁closing	-7123
▁Hon	-7124
agues	-7125
▁equipped	-7126
▁designer	-7127
▁component	-7128
▁intelligence	-7129
▁template	-7130
▁pharm	-7131
▁improving	-7132
▁ongoing	-7133
▁Josh	-7134
▁researchers	-7135
cons	-7136
▁OR	-7137
▁intense	-7138
▁contro	-7139
▁Kingdom	-7140
▁toil	-7141
▁managing	-7142
zer	-7143
▁checking	-7144
eping	-7145
▁Mult	-7146
▁partnership	-7147
▁county	-7148
▁browser	-7149
▁sounded	-7150
%.	-7151
▁expenses	-7152
▁linked	-7153
ca	-7154
itis	-7155
▁happiness	-7156
▁argument	-7157
▁injuries	-7158
▁tower	-7159
oty	-7160
▁burning	-7161
▁Ca	-7162
▁Cook	-7163
▁bub	-7164
▁Coll	-7165
▁urban	-7166
▁ham	-7167
▁mountains	-7168
▁liber	-7169
▁crisis	-7170
▁stored	-7171
▁crucial	-7172
resents	-7173
▁transition	-7174
nce	-7175
lines	-7176
▁butt	-7177
▁gard	-7178
▁collaboration	-7179
▁tooth	-7180
▁tear	-7181
▁craw	-7182
▁entreprene	-7183
▁Game	-7184
▁recy	-7185
long	-7186
▁Cond	-7187
▁Eliz	-7188
bar	-7189
OK	-7190
▁Had	-7191
▁tack	-7192
▁printed	-7193
▁Code	-7194
▁mile	-7195
▁brothers	-7196
▁coup	-7197
▁engaged	-7198
▁hopes	-7199
▁Hor	-7200
▁abandon	-7201
▁Beaut	-7202
▁Exec	-7203
▁studying	-7204
▁Ms	-7205
▁bars	-7206
andy	-7207
▁sacr	-7208
▁spir	-7209
▁brush	-7210
▁dragon	-7211
inte	-7212
▁Expl	-7213
▁strategic	-7214
▁surrounded	-7215
MA	-7216
▁flour	-7217
claimed	-7218
▁rice	-7219
PC	-7220
▁Disc	-7221
▁stim	-7222
▁Federal	-7223
ito	-7224
▁cave	-7225
itched	-7226
▁stain	-7227
',	-7228
▁proven	-7229
▁surprising	-7230
▁exposure	-7231
etry	-7232
▁adds	-7233
▁superior	-7234
▁Pack	-7235
▁Times	-7236
astern	-7237
abeth	-7238
▁appeal	-7239
▁murder	-7240
▁Room	-7241
▁attended	-7242
▁communications	-7243
urse	-7244
▁approached	-7245
▁loyal	-7246
▁bonus	-7247
weet	-7248
▁powers	-7249
▁sofa	-7250
▁candidate	-7251
intage	-7252
▁SU	-7253
▁conflict	-7254
▁occurred	-7255
▁tongue	-7256
▁raw	-7257
▁Control	-7258
▁phen	-7259
▁powder	-7260
▁Search	-7261
acious	-7262
▁ultimate	-7263
▁extent	-7264
▁blow	-7265
ifies	-7266
▁Mov	-7267
aron	-7268
▁discl	-7269
▁ol	-7270
▁ultimately	-7271
▁returning	-7272
▁excitement	-7273
▁shadow	-7274
TC	-7275
▁Def	-7276
▁illness	-7277
▁dumpster	-7278
▁taxes	-7279
▁Library	-7280
▁principles	-7281
Hello	-7282
▁annoy	-7283
▁attorney	-7284
▁Hun	-7285
▁yield	-7286
▁borrow	-7287
▁carpet	-7288
▁founded	-7289
▁Lind	-7290
▁jewel	-7291
▁root	-7292
stairs	-7293
▁loans	-7294
▁graduate	-7295
▁resulting	-7296
▁architecture	-7297
▁Egypt	-7298
▁merely	-7299
▁dil	-7300
▁Professor	-7301
▁Sea	-7302
Of	-7303
▁brilliant	-7304
ogen	-7305
▁breathing	-7306
▁Opt	-7307
▁ille	-7308
▁versions	-7309
▁reporting	-7310
▁Put	-7311
When	-7312
▁riding	-7313
▁slot	-7314
▁Priv	-7315
▁Chair	-7316
ackson	-7317
▁films	-7318
▁structures	-7319
step	-7320
▁Later	-7321
▁represents	-7322
▁filed	-7323
▁keys	-7324
▁evolution	-7325
▁tape	-7326
aret	-7327
▁Hard	-7328
▁Olymp	-7329
▁communicate	-7330
▁shapes	-7331
▁driven	-7332
▁portfol	-7333
▁transportation	-7334
▁Cir	-7335
▁isol	-7336
▁workshop	-7337
▁opens	-7338
▁vot	-7339
▁controlled	-7340
erning	-7341
▁anxiety	-7342
▁knee	-7343
▁alarm	-7344
▁episode	-7345
▁assume	-7346
▁Coast	-7347
▁lect	-7348
▁widely	-7349
▁smiles	-7350
▁tries	-7351
▁authors	-7352
▁yummy	-7353
▁subsequ	-7354
▁Ari	-7355
▁uncom	-7356
lers	-7357
▁hearts	-7358
▁Eth	-7359
▁contribute	-7360
▁Ram	-7361
▁Sky	-7362
▁plain	-7363
▁Carl	-7364
▁pul	-7365
▁Saf	-7366
▁Marc	-7367
▁approval	-7368
▁hasn	-7369
▁undert	-7370
▁believes	-7371
obby	-7372
▁emotion	-7373
▁tech	-7374
ennis	-7375
▁exposed	-7376
icious	-7377
▁vulner	-7378
▁naturally	-7379
TH	-7380
▁manufacturer	-7381
▁Iran	-7382
▁trends	-7383
▁grey	-7384
▁SP	-7385
▁Boston	-7386
▁encoun	-7387
▁whilst	-7388
▁disappeared	-7389
▁crossed	-7390
▁toss	-7391
▁poker	-7392
▁Santa	-7393
▁hardly	-7394
▁Night	-7395
▁committee	-7396
▁Virginia	-7397
▁lawyer	-7398
▁OK	-7399
▁CO	-7400
▁nights	-7401
▁Allah	-7402
▁dynamic	-7403
▁reply	-7404
▁jacket	-7405
▁depends	-7406
▁painted	-7407
▁acts	-7408
actions	-7409
▁athlet	-7410
▁immig	-7411
▁suffer	-7412
angers	-7413
iro	-7414
▁presents	-7415
nda	-7416
merce	-7417
▁permanent	-7418
▁Aff	-7419
▁authorities	-7420
▁DC	-7421
▁burst	-7422
▁suspect	-7423
Just	-7424
▁Current	-7425
ikes	-7426
▁survive	-7427
▁continuing	-7428
▁stretch	-7429
▁apple	-7430
▁stable	-7431
ashes	-7432
▁Stan	-7433
▁unusual	-7434
▁festival	-7435
Come	-7436
ags	-7437
▁Captain	-7438
cks	-7439
▁uniform	-7440
▁doctors	-7441
▁muscles	-7442
class	-7443
▁sustainable	-7444
hal	-7445
▁amounts	-7446
▁preferred	-7447
▁belt	-7448
▁Jones	-7449
▁marks	-7450
▁Ireland	-7451
▁exception	-7452
▁Obama	-7453
▁platforms	-7454
▁styl	-7455
▁falls	-7456
▁Ok	-7457
▁controls	-7458
▁pour	-7459
▁silly	-7460
inity	-7461
▁infect	-7462
▁mud	-7463
▁IC	-7464
▁flavor	-7465
then	-7466
▁yards	-7467
▁contest	-7468
▁Tay	-7469
attered	-7470
▁struck	-7471
zing	-7472
▁Cab	-7473
utter	-7474
ifting	-7475
▁certified	-7476
▁incredibly	-7477
▁alongside	-7478
▁rolling	-7479
ns	-7480
▁Lin	-7481
ultural	-7482
▁persons	-7483
▁Ryan	-7484
▁dent	-7485
▁photography	-7486
▁interpret	-7487
ds	-7488
fall	-7489
▁Ha	-7490
▁preparation	-7491
lements	-7492
▁affili	-7493
▁impressed	-7494
▁critic	-7495
▁talks	-7496
▁horiz	-7497
▁purple	-7498
▁Conf	-7499
▁offices	-7500
▁Army	-7501
▁Dave	-7502
▁Johnson	-7503
▁blanket	-7504
▁Bon	-7505
▁sna	-7506
▁wisdom	-7507
▁sensitive	-7508
ilty	-7509
▁Bow	-7510
▁tap	-7511
▁dental	-7512
▁crusher	-7513
▁tradition	-7514
uster	-7515
▁soup	-7516
▁satisfied	-7517
itan	-7518
▁writers	-7519
▁satisfaction	-7520
▁kissed	-7521
▁prospect	-7522
zil	-7523
▁vessel	-7524
▁filling	-7525
build	-7526
izer	-7527
▁Welcome	-7528
words	-7529
▁woke	-7530
▁Comple	-7531
▁Jason	-7532
▁primarily	-7533
urb	-7534
▁Ult	-7535
una	-7536
▁Gab	-7537
grad	-7538
▁thirty	-7539
unior	-7540
▁gallery	-7541
▁Zealand	-7542
▁DV	-7543
▁newly	-7544
▁dancing	-7545
▁refr	-7546
▁increasingly	-7547
▁gest	-7548
▁sir	-7549
Wow	-7550
▁Jess	-7551
ouch	-7552
▁Point	-7553
holders	-7554
▁apparently	-7555
▁pushing	-7556
▁ending	-7557
▁rum	-7558
▁Give	-7559
uan	-7560
▁AR	-7561
▁scary	-7562
▁Inside	-7563
▁compare	-7564
rot	-7565
▁Jackson	-7566
▁fallen	-7567
▁Fig	-7568
▁Digital	-7569
▁personality	-7570
▁Jay	-7571
jo	-7572
▁reminded	-7573
▁insight	-7574
▁council	-7575
▁Sn	-7576
▁reject	-7577
▁knees	-7578
▁sandw	-7579
▁suffe	-7580
oir	-7581
mar	-7582
▁gym	-7583
ja	-7584
▁tied	-7585
▁minds	-7586
ught	-7587
▁recon	-7588
▁fitness	-7589
▁agric	-7590
▁mole	-7591
▁merch	-7592
▁MA	-7593
▁traveling	-7594
ller	-7595
▁pitch	-7596
▁killing	-7597
▁incorpor	-7598
▁Dub	-7599
▁accord	-7600
▁Stone	-7601
▁membership	-7602
GB	-7603
▁comparison	-7604
inter	-7605
▁Vide	-7606
▁Low	-7607
iences	-7608
▁Jam	-7609
rome	-7610
▁merc	-7611
▁mining	-7612
inem	-7613
▁diamond	-7614
▁Southern	-7615
▁Mah	-7616
▁basically	-7617
▁strike	-7618
SP	-7619
igation	-7620
▁stake	-7621
ographic	-7622
▁monster	-7623
▁Hospital	-7624
▁displayed	-7625
▁safely	-7626
profit	-7627
date	-7628
▁Vill	-7629
▁breast	-7630
▁contained	-7631
▁producing	-7632
uous	-7633
▁worship	-7634
adows	-7635
▁Non	-7636
▁stack	-7637
▁AT	-7638
▁Something	-7639
▁quote	-7640
▁regardless	-7641
SC	-7642
▁weekly	-7643
war	-7644
▁reader	-7645
▁politics	-7646
gor	-7647
uling	-7648
stream	-7649
▁bunch	-7650
▁consideration	-7651
▁manufacturers	-7652
bits	-7653
▁Prem	-7654
▁nest	-7655
▁removal	-7656
▁Besides	-7657
itches	-7658
▁Jewish	-7659
gie	-7660
▁Brian	-7661
▁Harry	-7662
▁forgotten	-7663
▁Brad	-7664
▁bark	-7665
▁literally	-7666
ailable	-7667
▁functional	-7668
liers	-7669
▁joining	-7670
rets	-7671
▁decade	-7672
▁attitude	-7673
▁Carolina	-7674
▁handling	-7675
erring	-7676
▁Help	-7677
▁encouraged	-7678
▁treatments	-7679
▁behalf	-7680
▁Die	-7681
▁lets	-7682
▁relative	-7683
▁hiding	-7684
▁responded	-7685
▁historic	-7686
▁Mas	-7687
▁mand	-7688
▁marked	-7689
▁Live	-7690
▁mortgage	-7691
isk	-7692
▁shots	-7693
----	-7694
▁frog	-7695
iking	-7696
▁reveal	-7697
▁scheme	-7698
▁Phys	-7699
▁recover	-7700
▁Sure	-7701
uten	-7702
▁roles	-7703
▁Champions	-7704
ati	-7705
▁factory	-7706
looking	-7707
nie	-7708
▁Tar	-7709
▁enforce	-7710
▁Happy	-7711
elve	-7712
yers	-7713
▁chuck	-7714
▁·	-7715
▁picking	-7716
omed	-7717
▁leaf	-7718
▁intellect	-7719
BI	-7720
ancial	-7721
cular	-7722
▁politic	-7723
▁channels	-7724
▁estimated	-7725
▁connections	-7726
▁colorful	-7727
ipal	-7728
▁Support	-7729
▁ye	-7730
▁gonna	-7731
▁wand	-7732
▁logo	-7733
vas	-7734
▁Summer	-7735
▁array	-7736
▁jer	-7737
▁Sav	-7738
tes	-7739
des	-7740
▁figured	-7741
▁finance	-7742
▁surely	-7743
aper	-7744
▁involves	-7745
▁statements	-7746
amental	-7747
▁Holly	-7748
▁refused	-7749
mend	-7750
▁rapidly	-7751
▁candy	-7752
▁cloth	-7753
sect	-7754
▁reform	-7755
neys	-7756
▁Emma	-7757
▁Dark	-7758
▁extension	-7759
▁suppose	-7760
▁struggling	-7761
▁coal	-7762
▁Report	-7763
▁gained	-7764
Cl	-7765
▁Site	-7766
▁complicated	-7767
▁kil	-7768
▁rac	-7769
eting	-7770
▁arrival	-7771
rich	-7772
▁capabilities	-7773
▁flesh	-7774
▁abuse	-7775
▁mac	-7776
!'	-7777
▁Luke	-7778
ali	-7779
▁awarded	-7780
▁soph	-7781
▁unexpected	-7782
anches	-7783
level	-7784
▁viewed	-7785
▁outcome	-7786
▁Jimmy	-7787
▁firms	-7788
▁chances	-7789
▁Lila	-7790
▁matt	-7791
▁industries	-7792
▁Order	-7793
▁scientists	-7794
▁Ent	-7795
person	-7796
▁cheek	-7797
▁nuclear	-7798
atics	-7799
▁samples	-7800
▁instantly	-7801
▁Account	-7802
▁bother	-7803
▁acceler	-7804
▁spots	-7805
▁suggests	-7806
▁reduction	-7807
▁enables	-7808
▁generated	-7809
▁Shop	-7810
▁creatures	-7811
▁Pot	-7812
▁phr	-7813
▁limits	-7814
▁Lady	-7815
▁plot	-7816
▁requests	-7817
anes	-7818
▁synt	-7819
▁ax	-7820
▁entering	-7821
▁clouds	-7822
▁Instagram	-7823
odge	-7824
▁Quest	-7825
▁shake	-7826
▁Columb	-7827
▁definition	-7828
aisy	-7829
Pro	-7830
▁ow	-7831
▁Garden	-7832
▁LED	-7833
▁submitted	-7834
▁telephone	-7835
▁concerning	-7836
orters	-7837
▁reducing	-7838
▁hospit	-7839
▁priority	-7840
state	-7841
aire	-7842
▁Fun	-7843
remony	-7844
▁Mess	-7845
comm	-7846
▁mir	-7847
ifer	-7848
▁managers	-7849
▁Sports	-7850
▁greatly	-7851
▁directions	-7852
▁accessories	-7853
▁Ah	-7854
▁regions	-7855
▁Kn	-7856
▁bol	-7857
▁Penn	-7858
▁Fre	-7859
▁landed	-7860
▁recognition	-7861
▁concepts	-7862
▁pic	-7863
▁recipes	-7864
▁relaxed	-7865
▁Need	-7866
▁electricity	-7867
▁heavily	-7868
▁shrugged	-7869
▁tu	-7870
▁roads	-7871
▁compass	-7872
▁percentage	-7873
▁twe	-7874
gging	-7875
▁narr	-7876
▁blend	-7877
▁Jacob	-7878
▁boots	-7879
asting	-7880
▁Eve	-7881
▁rust	-7882
▁consists	-7883
▁bunny	-7884
▁strict	-7885
▁aircraft	-7886
▁introduction	-7887
▁seeds	-7888
▁entit	-7889
▁drag	-7890
▁guilty	-7891
▁explains	-7892
▁mob	-7893
▁Inf	-7894
▁caut	-7895
▁laptop	-7896
▁Tony	-7897
▁disappointed	-7898
▁Travel	-7899
▁amazed	-7900
▁preparing	-7901
FL	-7902
uter	-7903
▁calendar	-7904
▁Norm	-7905
▁observ	-7906
▁trusted	-7907
▁decent	-7908
▁pants	-7909
▁everybody	-7910
▁Pacific	-7911
hire	-7912
▁amongst	-7913
?”	-7914
▁nobody	-7915
▁Francisco	-7916
▁waters	-7917
▁Northern	-7918
▁bid	-7919
active	-7920
▁Pak	-7921
▁hint	-7922
▁zero	-7923
▁holes	-7924
▁Elizabeth	-7925
▁..	-7926
▁obst	-7927
▁Works	-7928
ipt	-7929
MP	-7930
Did	-7931
▁commonly	-7932
oves	-7933
▁Additionally	-7934
Your	-7935
▁expressed	-7936
▁matches	-7937
mic	-7938
Sure	-7939
▁ske	-7940
▁destroyed	-7941
su	-7942
▁programming	-7943
▁consequences	-7944
eters	-7945
▁equival	-7946
▁interrupt	-7947
▁portfolio	-7948
▁intention	-7949
▁recommendations	-7950
▁Fed	-7951
▁Ut	-7952
▁Rom	-7953
print	-7954
▁Silver	-7955
▁с	-7956
▁claimed	-7957
▁sought	-7958
▁Games	-7959
▁Ra	-7960
▁Frie	-7961
▁printing	-7962
▁enterprise	-7963
▁requested	-7964
▁childhood	-7965
▁pile	-7966
▁guidelines	-7967
pir	-7968
▁awards	-7969
▁Ford	-7970
▁attach	-7971
ogy	-7972
▁ensuring	-7973
Ar	-7974
bridge	-7975
▁Executive	-7976
▁suggestions	-7977
SE	-7978
▁cu	-7979
▁slee	-7980
▁CR	-7981
▁Catholic	-7982
▁phones	-7983
anche	-7984
▁SC	-7985
▁enorm	-7986
▁Assist	-7987
▁Week	-7988
ustration	-7989
▁lifetime	-7990
ulpt	-7991
▁potentially	-7992
▁Pract	-7993
▁eligible	-7994
eddy	-7995
cut	-7996
▁Farm	-7997
▁subjects	-7998
▁container	-7999
▁necessarily	-8000
▁Mean	-8001
▁sweat	-8002
▁slipped	-8003
▁specialist	-8004
▁myster	-8005
▁era	-8006
▁elder	-8007
▁criter	-8008
▁Space	-8009
▁racing	-8010
▁demands	-8011
▁developers	-8012
unicip	-8013
ventional	-8014
▁consumption	-8015
▁Price	-8016
▁framework	-8017
▁colours	-8018
eras	-8019
▁conce	-8020
▁applicable	-8021
▁compliance	-8022
▁availability	-8023
▁pilot	-8024
▁categories	-8025
▁Orig	-8026
inch	-8027
▁lone	-8028
uffy	-8029
▁stops	-8030
utional	-8031
▁ash	-8032
▁approaches	-8033
▁pounds	-8034
▁objective	-8035
▁Bang	-8036
▁mold	-8037
ione	-8038
▁shaking	-8039
▁uncle	-8040
▁innoc	-8041
▁raising	-8042
▁Environment	-8043
auc	-8044
ico	-8045
▁Dun	-8046
▁Dog	-8047
▁computers	-8048
▁slid	-8049
▁Marketing	-8050
▁cabinet	-8051
▁Jersey	-8052
▁paused	-8053
terior	-8054
▁Greek	-8055
▁Molly	-8056
rer	-8057
ansas	-8058
ologist	-8059
usal	-8060
▁sed	-8061
▁enthusi	-8062
▁Brazil	-8063
▁resume	-8064
’,	-8065
▁deposit	-8066
imp	-8067
▁Girl	-8068
▁Ball	-8069
▁yelled	-8070
▁glasses	-8071
iour	-8072
▁cig	-8073
▁prize	-8074
▁injured	-8075
▁п	-8076
site	-8077
▁bull	-8078
▁sail	-8079
foot	-8080
▁Engineering	-8081
▁pointing	-8082
▁Heart	-8083
▁Has	-8084
▁Hold	-8085
▁Mir	-8086
▁hack	-8087
▁compat	-8088
▁rely	-8089
▁scored	-8090
▁Select	-8091
▁Ess	-8092
▁minim	-8093
quality	-8094
▁trash	-8095
▁closet	-8096
eness	-8097
▁resort	-8098
▁granted	-8099
oors	-8100
▁fib	-8101
▁Prime	-8102
▁revolution	-8103
▁Mobile	-8104
▁heating	-8105
▁math	-8106
▁damaged	-8107
ruption	-8108
ador	-8109
▁cheer	-8110
▁Williams	-8111
▁FREE	-8112
▁Building	-8113
▁concert	-8114
▁requirement	-8115
asty	-8116
▁Pop	-8117
▁waist	-8118
▁Box	-8119
▁Systems	-8120
▁elegant	-8121
Please	-8122
▁cush	-8123
atell	-8124
▁tact	-8125
▁equally	-8126
▁tracking	-8127
▁pleasant	-8128
▁shield	-8129
▁codes	-8130
▁fought	-8131
mble	-8132
▁introduce	-8133
▁cha	-8134
▁newspaper	-8135
▁mattress	-8136
bie	-8137
▁brow	-8138
▁ordinary	-8139
▁hits	-8140
▁WH	-8141
▁Made	-8142
▁crown	-8143
▁YOU	-8144
!)	-8145
onym	-8146
▁correctly	-8147
plates	-8148
▁wheels	-8149
▁peaceful	-8150
▁Insurance	-8151
UN	-8152
▁buff	-8153
▁minimal	-8154
▁Charlie	-8155
▁Simon	-8156
liament	-8157
▁grip	-8158
▁vert	-8159
▁treasure	-8160
▁\	-8161
▁Rub	-8162
▁Guide	-8163
▁abilities	-8164
ument	-8165
▁displ	-8166
▁faculty	-8167
▁shelf	-8168
▁surve	-8169
▁precious	-8170
▁maintained	-8171
Wh	-8172
▁trim	-8173
▁casual	-8174
▁Disney	-8175
▁democr	-8176
On	-8177
▁Store	-8178
▁containing	-8179
lee	-8180
ulum	-8181
▁pizza	-8182
▁dispos	-8183
▁rhy	-8184
▁suffered	-8185
▁supplement	-8186
▁boot	-8187
▁debate	-8188
▁spell	-8189
▁Michigan	-8190
▁hotels	-8191
▁disappear	-8192
▁OS	-8193
▁cher	-8194
▁Mu	-8195
etary	-8196
▁Financial	-8197
orce	-8198
making	-8199
▁baking	-8200
Le	-8201
pection	-8202
hr	-8203
phones	-8204
pled	-8205
roller	-8206
acher	-8207
▁ghost	-8208
▁accomplish	-8209
phy	-8210
ayer	-8211
▁contents	-8212
▁hopped	-8213
stract	-8214
▁manif	-8215
▁Georgia	-8216
Tube	-8217
iser	-8218
▁proposal	-8219
▁languages	-8220
▁exhibition	-8221
▁neut	-8222
▁Nat	-8223
▁trips	-8224
▁tissue	-8225
▁diseases	-8226
▁jaw	-8227
▁swall	-8228
riers	-8229
▁apolog	-8230
▁Webs	-8231
▁indicate	-8232
▁buyers	-8233
▁Connect	-8234
▁Leg	-8235
▁expansion	-8236
AA	-8237
▁Rod	-8238
▁fundamental	-8239
▁password	-8240
▁pit	-8241
▁holidays	-8242
▁champ	-8243
zed	-8244
▁Smart	-8245
▁screamed	-8246
mit	-8247
▁spoken	-8248
▁bills	-8249
▁assigned	-8250
▁usage	-8251
inet	-8252
onic	-8253
▁mistakes	-8254
HS	-8255
oked	-8256
▁worn	-8257
▁Jill	-8258
▁ships	-8259
rat	-8260
fortable	-8261
▁maintaining	-8262
bro	-8263
▁exists	-8264
▁Line	-8265
▁Tal	-8266
▁appli	-8267
▁Ref	-8268
rants	-8269
▁Section	-8270
▁retirement	-8271
▁CP	-8272
arry	-8273
▁DNA	-8274
iversary	-8275
▁applying	-8276
angle	-8277
▁packages	-8278
friendly	-8279
▁rating	-8280
CE	-8281
mother	-8282
▁butterfly	-8283
▁pound	-8284
▁melt	-8285
ificial	-8286
▁SS	-8287
▁Lisa	-8288
uties	-8289
▁dollar	-8290
▁instruction	-8291
▁transaction	-8292
being	-8293
▁Tax	-8294
▁literature	-8295
apore	-8296
▁pale	-8297
▁Ohio	-8298
▁Bry	-8299
▁Spain	-8300
▁outcomes	-8301
▁Run	-8302
cers	-8303
▁Ira	-8304
▁explanation	-8305
bra	-8306
▁bacter	-8307
▁impression	-8308
▁league	-8309
▁evaluation	-8310
igned	-8311
▁deaths	-8312
vation	-8313
▁engines	-8314
pending	-8315
▁branches	-8316
isms	-8317
▁alert	-8318
▁Within	-8319
▁meets	-8320
▁strongly	-8321
▁indu	-8322
▁Bud	-8323
▁Greg	-8324
▁ceremony	-8325
iti	-8326
▁speaker	-8327
Go	-8328
▁Area	-8329
rieved	-8330
▁patch	-8331
▁indicated	-8332
▁purchasing	-8333
▁lung	-8334
▁Proper	-8335
▁automatic	-8336
Then	-8337
▁largely	-8338
DS	-8339
add	-8340
▁corn	-8341
▁rush	-8342
—"	-8343
iac	-8344
▁rug	-8345
▁exit	-8346
▁Could	-8347
▁Join	-8348
▁Kitchen	-8349
acles	-8350
onto	-8351
▁volunteers	-8352
▁lists	-8353
▁exceptional	-8354
TMs	-8355
▁professor	-8356
▁gap	-8357
▁visits	-8358
▁wireless	-8359
▁desert	-8360
▁Colorado	-8361
▁sections	-8362
▁Page	-8363
owers	-8364
▁tube	-8365
▁fruits	-8366
▁shell	-8367
▁involving	-8368
▁division	-8369
cific	-8370
▁shade	-8371
▁occurs	-8372
▁twist	-8373
eks	-8374
▁reception	-8375
rection	-8376
▁Emily	-8377
ilipp	-8378
▁renov	-8379
▁temporary	-8380
▁downtown	-8381
▁authentic	-8382
LY	-8383
tics	-8384
▁backyard	-8385
▁Swed	-8386
▁tempt	-8387
▁pricing	-8388
quis	-8389
▁lion	-8390
atched	-8391
▁stages	-8392
▁fake	-8393
▁admitted	-8394
▁mild	-8395
▁neighb	-8396
▁Tam	-8397
▁Pur	-8398
mo	-8399
dri	-8400
itution	-8401
bury	-8402
▁ok	-8403
▁Viet	-8404
▁crash	-8405
▁reprodu	-8406
▁Perform	-8407
▁characteristics	-8408
ask	-8409
▁Mos	-8410
▁explos	-8411
▁cotton	-8412
▁courage	-8413
▁nap	-8414
MC	-8415
▁rural	-8416
▁blade	-8417
▁setup	-8418
▁Job	-8419
▁illegal	-8420
▁desce	-8421
▁expecting	-8422
▁cuts	-8423
▁fest	-8424
▁Print	-8425
▁generous	-8426
umer	-8427
▁latter	-8428
▁yoga	-8429
▁Training	-8430
ih	-8431
▁shore	-8432
ping	-8433
▁temple	-8434
▁guards	-8435
▁gathering	-8436
▁philosophy	-8437
▁Nik	-8438
▁adequ	-8439
▁Modern	-8440
▁YouTube	-8441
osy	-8442
▁stations	-8443
▁represented	-8444
EA	-8445
▁drain	-8446
▁overcome	-8447
▁Local	-8448
▁association	-8449
▁Nob	-8450
▁Kevin	-8451
▁imper	-8452
▁shit	-8453
........	-8454
▁Copy	-8455
▁scratch	-8456
▁somebody	-8457
wan	-8458
wear	-8459
▁Irish	-8460
▁floors	-8461
▁graphics	-8462
▁Forest	-8463
uma	-8464
▁Cra	-8465
law	-8466
▁rack	-8467
▁Rh	-8468
▁fits	-8469
▁Rog	-8470
▁integration	-8471
arest	-8472
▁Cru	-8473
▁Taylor	-8474
▁colleagues	-8475
sized	-8476
▁spotted	-8477
▁Prince	-8478
▁sexual	-8479
▁photographs	-8480
wo	-8481
▁rarely	-8482
▁findings	-8483
▁FOR	-8484
▁kingdom	-8485
▁Software	-8486
▁cater	-8487
▁therm	-8488
▁Division	-8489
▁blink	-8490
▁recall	-8491
kr	-8492
▁Ap	-8493
▁sorts	-8494
▁Guard	-8495
▁Following	-8496
Tr	-8497
▁invite	-8498
▁centers	-8499
▁upgrade	-8500
AY	-8501
▁Stat	-8502
▁voices	-8503
▁ads	-8504
▁jar	-8505
▁trib	-8506
▁toilet	-8507
▁Britain	-8508
▁landing	-8509
theless	-8510
▁participation	-8511
▁lens	-8512
▁laser	-8513
engers	-8514
▁sheets	-8515
▁ignore	-8516
▁Tell	-8517
▁publication	-8518
▁heal	-8519
oding	-8520
proof	-8521
▁repeat	-8522
Con	-8523
ensus	-8524
char	-8525
▁respectively	-8526
▁interaction	-8527
▁tort	-8528
▁adventures	-8529
▁Personal	-8530
▁encounter	-8531
▁SEO	-8532
adium	-8533
▁rubber	-8534
▁responses	-8535
▁volunteer	-8536
abetes	-8537
vity	-8538
▁gal	-8539
▁lamp	-8540
▁Members	-8541
▁fright	-8542
▁Fall	-8543
tail	-8544
▁slip	-8545
▁bree	-8546
gorith	-8547
aya	-8548
▁acquis	-8549
istent	-8550
▁Daisy	-8551
▁beds	-8552
▁conclusion	-8553
▁Jord	-8554
▁accompan	-8555
▁southern	-8556
▁emails	-8557
▁errors	-8558
▁phenomen	-8559
GE	-8560
▁equivalent	-8561
tery	-8562
▁combine	-8563
▁ski	-8564
▁puppy	-8565
▁Laur	-8566
▁cooked	-8567
▁da	-8568
▁fed	-8569
▁alter	-8570
die	-8571
heart	-8572
▁Studies	-8573
▁initiative	-8574
▁Pakistan	-8575
▁legislation	-8576
▁secondary	-8577
▁drum	-8578
▁asset	-8579
including	-8580
▁attempts	-8581
▁sevent	-8582
▁princess	-8583
▁organisation	-8584
Com	-8585
ership	-8586
rous	-8587
▁rope	-8588
▁employer	-8589
▁personnel	-8590
▁frequency	-8591
shine	-8592
▁Os	-8593
▁shed	-8594
▁liability	-8595
▁Li	-8596
TR	-8597
▁Kate	-8598
▁SH	-8599
▁Casino	-8600
▁PDF	-8601
▁celebration	-8602
▁breaks	-8603
▁criteria	-8604
▁roots	-8605
▁Airport	-8606
asted	-8607
▁diagram	-8608
▁stab	-8609
Me	-8610
▁bones	-8611
▁tightly	-8612
▁Singapore	-8613
igen	-8614
▁ignored	-8615
▁knocked	-8616
▁alumin	-8617
▁Cry	-8618
▁movements	-8619
▁Case	-8620
ials	-8621
▁nurse	-8622
▁Contin	-8623
▁layout	-8624
▁roy	-8625
▁angle	-8626
jection	-8627
ushes	-8628
▁gran	-8629
▁wrap	-8630
alty	-8631
▁Rome	-8632
▁wing	-8633
▁amend	-8634
▁USB	-8635
▁focusing	-8636
ested	-8637
agers	-8638
▁Based	-8639
▁circuit	-8640
▁Rick	-8641
▁Mountain	-8642
▁consultation	-8643
ools	-8644
▁Asian	-8645
▁aimed	-8646
▁Kent	-8647
▁neighbour	-8648
▁hyper	-8649
▁Professional	-8650
ospel	-8651
▁module	-8652
▁sentence	-8653
▁compensation	-8654
▁Vin	-8655
▁lawn	-8656
▁layers	-8657
▁acquired	-8658
▁CC	-8659
▁initially	-8660
▁Az	-8661
▁insert	-8662
▁broadcast	-8663
▁Sup	-8664
▁spo	-8665
▁Iraq	-8666
▁assistant	-8667
▁adopted	-8668
ko	-8669
▁Emer	-8670
▁Benny	-8671
▁dies	-8672
▁fancy	-8673
▁Clin	-8674
▁Video	-8675
oof	-8676
▁pepper	-8677
▁Officer	-8678
▁speakers	-8679
▁Ideas	-8680
▁proved	-8681
▁enormous	-8682
▁aer	-8683
▁judgment	-8684
UL	-8685
father	-8686
acular	-8687
▁lap	-8688
ront	-8689
▁Alice	-8690
iler	-8691
▁steam	-8692
▁clever	-8693
▁venue	-8694
▁wishes	-8695
▁Interest	-8696
▁peak	-8697
▁scope	-8698
clusive	-8699
▁Several	-8700
▁neat	-8701
▁unto	-8702
▁Christians	-8703
Pl	-8704
▁deserve	-8705
▁licensed	-8706
▁balls	-8707
▁salad	-8708
df	-8709
omatic	-8710
▁haz	-8711
▁semi	-8712
ocation	-8713
▁kicked	-8714
itty	-8715
▁bold	-8716
Un	-8717
▁passage	-8718
▁sits	-8719
▁oppon	-8720
▁cameras	-8721
▁PS	-8722
▁Fa	-8723
▁aged	-8724
▁improvements	-8725
▁sheep	-8726
▁compassion	-8727
alog	-8728
▁farmers	-8729
▁steady	-8730
▁Justice	-8731
▁colon	-8732
istol	-8733
▁Bern	-8734
▁tender	-8735
ounge	-8736
▁vine	-8737
▁convin	-8738
▁attending	-8739
bage	-8740
▁appointed	-8741
▁rescue	-8742
▁depression	-8743
▁certificate	-8744
▁stones	-8745
▁lemon	-8746
▁Whatever	-8747
▁assured	-8748
▁panels	-8749
▁searched	-8750
ATION	-8751
▁refriger	-8752
▁fiction	-8753
▁cul	-8754
▁Death	-8755
orous	-8756
▁tow	-8757
otal	-8758
▁Secretary	-8759
walk	-8760
▁relieved	-8761
▁ward	-8762
▁Wi	-8763
▁tum	-8764
Press	-8765
redit	-8766
power	-8767
▁Grace	-8768
▁elected	-8769
bound	-8770
▁dying	-8771
▁representative	-8772
asm	-8773
▁stamp	-8774
heast	-8775
▁perce	-8776
ibl	-8777
▁regret	-8778
▁echo	-8779
▁electron	-8780
sole	-8781
▁western	-8782
brid	-8783
▁Blog	-8784
▁entert	-8785
▁beneficial	-8786
▁pup	-8787
▁fairy	-8788
vironments	-8789
▁Meanwhile	-8790
▁drives	-8791
▁inspect	-8792
Fi	-8793
dney	-8794
▁buttons	-8795
▁Furthermore	-8796
▁Cloud	-8797
▁residence	-8798
irk	-8799
▁bell	-8800
stein	-8801
▁Moreover	-8802
▁Ox	-8803
!!!!	-8804
▁spare	-8805
▁Learning	-8806
▁publ	-8807
▁functionality	-8808
▁Fox	-8809
▁exch	-8810
▁transactions	-8811
▁ought	-8812
▁actors	-8813
ela	-8814
▁Natural	-8815
▁stopping	-8816
alo	-8817
▁imagination	-8818
▁Sales	-8819
▁suppliers	-8820
▁examine	-8821
▁mystery	-8822
▁engaging	-8823
▁DVD	-8824
ón	-8825
▁Na	-8826
▁seal	-8827
har	-8828
▁Prom	-8829
▁skilled	-8830
▁matching	-8831
▁creativity	-8832
▁^	-8833
▁orient	-8834
▁gig	-8835
▁resid	-8836
▁flexibility	-8837
▁Ten	-8838
sell	-8839
▁importantly	-8840
▁dismiss	-8841
och	-8842
▁Conc	-8843
was	-8844
▁grounds	-8845
▁entitled	-8846
ndry	-8847
▁dozen	-8848
▁toler	-8849
▁Among	-8850
▁rushed	-8851
FC	-8852
oli	-8853
▁batt	-8854
▁nations	-8855
▁legend	-8856
▁captured	-8857
▁nowhere	-8858
zes	-8859
▁basketball	-8860
▁maxim	-8861
azed	-8862
▁settle	-8863
▁uncomfortable	-8864
▁hosted	-8865
▁demonstrate	-8866
▁thrown	-8867
▁Together	-8868
▁specified	-8869
▁Auto	-8870
▁Force	-8871
▁farmer	-8872
▁visitor	-8873
▁CB	-8874
▁argue	-8875
▁vintage	-8876
▁sen	-8877
▁shr	-8878
icking	-8879
▁transmission	-8880
iki	-8881
reement	-8882
▁tunnel	-8883
don	-8884
▁damn	-8885
▁sculpt	-8886
▁Resp	-8887
▁aims	-8888
gly	-8889
▁fired	-8890
▁define	-8891
▁champions	-8892
days	-8893
▁softly	-8894
▁convert	-8895
cycle	-8896
▁measured	-8897
charge	-8898
▁vamp	-8899
▁squir	-8900
▁victims	-8901
▁Eastern	-8902
▁ratio	-8903
▁booking	-8904
TV	-8905
rison	-8906
boy	-8907
▁Oil	-8908
erate	-8909
RS	-8910
issa	-8911
▁Short	-8912
▁Austin	-8913
▁withdraw	-8914
▁combat	-8915
▁focuses	-8916
▁beings	-8917
▁Ur	-8918
▁Prop	-8919
▁screens	-8920
▁delivering	-8921
▁privile	-8922
elle	-8923
▁jewelry	-8924
▁forum	-8925
▁investments	-8926
▁baseball	-8927
▁Machine	-8928
ellow	-8929
▁manip	-8930
▁promotion	-8931
apy	-8932
▁mm	-8933
▁accommodation	-8934
▁suite	-8935
▁passionate	-8936
▁listing	-8937
▁throwing	-8938
▁possibilities	-8939
rooms	-8940
▁posting	-8941
▁comprom	-8942
▁Bit	-8943
▁Fact	-8944
▁slam	-8945
icide	-8946
▁Bath	-8947
▁Steel	-8948
▁Ven	-8949
▁recre	-8950
▁accordance	-8951
iy	-8952
▁dough	-8953
aka	-8954
▁tagged	-8955
▁protocol	-8956
▁Want	-8957
▁fraud	-8958
▁abund	-8959
▁Senate	-8960
▁boards	-8961
▁Quality	-8962
▁Las	-8963
▁Korea	-8964
▁temperatures	-8965
▁Cro	-8966
icket	-8967
ambling	-8968
▁interactive	-8969
eem	-8970
▁Ice	-8971
▁outs	-8972
ierce	-8973
▁Common	-8974
ji	-8975
▁declared	-8976
▁consciousness	-8977
criptions	-8978
▁reserved	-8979
▁edges	-8980
tical	-8981
▁instruments	-8982
agen	-8983
axy	-8984
▁cann	-8985
▁Meth	-8986
▁relation	-8987
▁glance	-8988
▁pp	-8989
ipes	-8990
nders	-8991
▁Hu	-8992
▁queen	-8993
▁Station	-8994
▁convinced	-8995
▁completion	-8996
▁Bad	-8997
▁extraord	-8998
▁forecast	-8999
annel	-9000
▁Field	-9001
▁drops	-9002
▁buried	-9003
▁substantial	-9004
▁tons	-9005
pire	-9006
▁designers	-9007
▁bare	-9008
sis	-9009
▁cats	-9010
▁Things	-9011
▁burned	-9012
▁adj	-9013
▁Doc	-9014
▁cleared	-9015
fire	-9016
color	-9017
▁bot	-9018
▁snapped	-9019
▁mask	-9020
▁placing	-9021
▁Fac	-9022
▁begun	-9023
▁periods	-9024
▁compliment	-9025
▁currency	-9026
▁uncertain	-9027
▁environments	-9028
▁implemented	-9029
▁romantic	-9030
▁Ren	-9031
▁Employ	-9032
Bl	-9033
▁backed	-9034
One	-9035
▁Medicine	-9036
ige	-9037
utor	-9038
▁Sad	-9039
inson	-9040
▁singer	-9041
▁Hay	-9042
▁cous	-9043
▁frozen	-9044
▁gaming	-9045
▁Foot	-9046
▁divided	-9047
▁hunting	-9048
▁northern	-9049
▁continuous	-9050
ima	-9051
▁Matthew	-9052
▁loaded	-9053
▁aggress	-9054
To	-9055
riculum	-9056
▁bent	-9057
▁Niger	-9058
yes	-9059
▁jail	-9060
▁enjoys	-9061
▁chips	-9062
▁texture	-9063
▁principle	-9064
▁discovery	-9065
DP	-9066
dis	-9067
▁Stock	-9068
▁crystal	-9069
atile	-9070
▁allerg	-9071
▁Bul	-9072
▁washing	-9073
De	-9074
▁Rights	-9075
▁airl	-9076
▁charity	-9077
▁assembly	-9078
▁talented	-9079
▁Maria	-9080
▁provision	-9081
▁algorith	-9082
▁guaranteed	-9083
▁medication	-9084
▁lou	-9085
GA	-9086
▁addresses	-9087
▁sacrif	-9088
▁appreciated	-9089
▁contribution	-9090
▁badly	-9091
▁Awards	-9092
neath	-9093
▁tension	-9094
▁survival	-9095
▁addressed	-9096
▁behaviour	-9097
▁makeup	-9098
▁signature	-9099
▁accounting	-9100
▁)	-9101
▁Senior	-9102
onder	-9103
▁drama	-9104
▁viewing	-9105
▁ministry	-9106
EST	-9107
▁actor	-9108
▁captain	-9109
▁sophist	-9110
▁convenience	-9111
▁Visit	-9112
▁hers	-9113
▁blame	-9114
▁hitting	-9115
▁Soph	-9116
▁intellectual	-9117
after	-9118
▁Arm	-9119
▁Quick	-9120
▁Country	-9121
▁Website	-9122
▁snack	-9123
▁permit	-9124
▁frowned	-9125
▁Ever	-9126
run	-9127
▁Lat	-9128
mates	-9129
▁Golden	-9130
▁Saint	-9131
▁imagined	-9132
xygen	-9133
▁Stephen	-9134
▁Drive	-9135
▁oh	-9136
cery	-9137
▁Hou	-9138
▁Jean	-9139
▁Prin	-9140
▁Brother	-9141
▁plates	-9142
ен	-9143
▁Safety	-9144
acht	-9145
▁Labor	-9146
▁Ak	-9147
▁Philipp	-9148
▁difficulty	-9149
LS	-9150
▁debut	-9151
▁Sydney	-9152
▁formation	-9153
▁Image	-9154
▁mechanism	-9155
▁palm	-9156
urches	-9157
kel	-9158
▁Self	-9159
▁Lyn	-9160
arks	-9161
▁folder	-9162
▁Victoria	-9163
RI	-9164
▁Customer	-9165
acc	-9166
▁scores	-9167
▁mathem	-9168
stra	-9169
▁confusion	-9170
coin	-9171
icted	-9172
▁Jenn	-9173
▁в	-9174
cul	-9175
star	-9176
otion	-9177
▁Psych	-9178
Hi	-9179
▁Oak	-9180
uccess	-9181
agged	-9182
▁Dream	-9183
FA	-9184
ultane	-9185
▁physically	-9186
▁Bridge	-9187
page	-9188
Book	-9189
▁mg	-9190
▁surge	-9191
▁Regard	-9192
▁operated	-9193
adel	-9194
wall	-9195
▁maps	-9196
▁fluid	-9197
▁pregnant	-9198
▁LLC	-9199
▁whist	-9200
ст	-9201
▁Bru	-9202
▁contracts	-9203
▁advantages	-9204
▁Toy	-9205
▁fifth	-9206
▁PA	-9207
▁stainless	-9208
▁Scotland	-9209
▁stability	-9210
▁sigh	-9211
▁consent	-9212
▁distributed	-9213
hyd	-9214
kind	-9215
▁finest	-9216
▁cookie	-9217
▁finishing	-9218
▁LA	-9219
▁warranty	-9220
chers	-9221
▁bucket	-9222
▁shocked	-9223
▁Tele	-9224
▁diversity	-9225
▁proport	-9226
▁copies	-9227
▁boring	-9228
▁snap	-9229
▁outer	-9230
▁absence	-9231
▁Pu	-9232
▁Vegas	-9233
alous	-9234
▁lowest	-9235
▁Cass	-9236
ista	-9237
▁Beth	-9238
▁generations	-9239
ylvan	-9240
viously	-9241
rogen	-9242
▁Toronto	-9243
▁Kh	-9244
▁robot	-9245
▁Working	-9246
▁distant	-9247
▁barn	-9248
▁accuracy	-9249
Sp	-9250
▁patio	-9251
▁emerging	-9252
▁intelligent	-9253
▁configuration	-9254
inth	-9255
ults	-9256
▁Capital	-9257
▁Anth	-9258
▁pillow	-9259
▁scenes	-9260
▁glory	-9261
▁painful	-9262
▁segment	-9263
▁conversations	-9264
▁Process	-9265
iffe	-9266
▁Due	-9267
▁employed	-9268
▁wins	-9269
▁Daddy	-9270
▁Johnny	-9271
▁targets	-9272
▁forehead	-9273
▁hip	-9274
▁insights	-9275
▁acknowled	-9276
▁SM	-9277
▁glow	-9278
▁utility	-9279
▁gre	-9280
▁Exam	-9281
▁gene	-9282
▁Treat	-9283
▁coin	-9284
▁CS	-9285
▁Mama	-9286
▁prime	-9287
▁caring	-9288
▁participating	-9289
▁passes	-9290
▁Policy	-9291
▁minister	-9292
▁Civil	-9293
▁eyeb	-9294
▁pursue	-9295
▁thoroughly	-9296
▁workshops	-9297
▁marry	-9298
cribed	-9299
▁hallway	-9300
▁institution	-9301
▁Below	-9302
aver	-9303
▁experiencing	-9304
▁warned	-9305
▁opinions	-9306
▁straw	-9307
world	-9308
▁Six	-9309
▁piano	-9310
▁Choose	-9311
▁repairs	-9312
▁meters	-9313
▁twelve	-9314
▁nail	-9315
giving	-9316
▁displays	-9317
▁certification	-9318
▁gender	-9319
aft	-9320
▁dess	-9321
▁endless	-9322
▁;	-9323
▁grat	-9324
▁refuge	-9325
▁Administration	-9326
aned	-9327
▁hood	-9328
▁joke	-9329
▁Ministry	-9330
erman	-9331
rett	-9332
▁daddy	-9333
▁mechanical	-9334
▁organisations	-9335
edia	-9336
▁refres	-9337
allel	-9338
▁harsh	-9339
▁Private	-9340
▁Pict	-9341
this	-9342
▁bay	-9343
▁Latin	-9344
▁chamber	-9345
▁inspection	-9346
▁union	-9347
▁chronic	-9348
▁Corporation	-9349
▁grinned	-9350
fits	-9351
▁seasons	-9352
ika	-9353
▁legit	-9354
▁Jordan	-9355
▁duties	-9356
▁dual	-9357
▁rhyth	-9358
▁disaster	-9359
▁DO	-9360
▁Cou	-9361
▁gri	-9362
▁Jenny	-9363
▁lonely	-9364
inals	-9365
▁tile	-9366
▁bedrooms	-9367
▁gut	-9368
▁ladies	-9369
▁ownership	-9370
aska	-9371
▁inventory	-9372
▁Kenn	-9373
▁Tit	-9374
▁horror	-9375
found	-9376
▁Terr	-9377
▁trucks	-9378
▁flooring	-9379
▁Avenue	-9380
CD	-9381
inois	-9382
▁strengthen	-9383
olid	-9384
phant	-9385
▁essentially	-9386
▁hopefully	-9387
aa	-9388
child	-9389
▁boats	-9390
▁Five	-9391
▁Much	-9392
▁overse	-9393
▁cleaned	-9394
▁officially	-9395
urg	-9396
pany	-9397
▁Unt	-9398
low	-9399
▁HP	-9400
▁Patrick	-9401
fish	-9402
▁bin	-9403
▁sensor	-9404
▁accum	-9405
▁wider	-9406
▁estimate	-9407
books	-9408
▁hub	-9409
▁Agency	-9410
zona	-9411
▁protecting	-9412
iry	-9413
▁solo	-9414
▁Kind	-9415
▁warmth	-9416
▁arranged	-9417
oll	-9418
▁Sab	-9419
▁jur	-9420
▁Sem	-9421
▁Kelly	-9422
▁applies	-9423
▁cord	-9424
▁sunny	-9425
▁assumed	-9426
▁tutorial	-9427
hour	-9428
▁seam	-9429
▁trigger	-9430
▁ink	-9431
▁themes	-9432
▁Ele	-9433
▁Doctor	-9434
▁acquire	-9435
encing	-9436
▁titles	-9437
▁Easy	-9438
▁elsewhere	-9439
awa	-9440
▁conventional	-9441
iary	-9442
▁concentration	-9443
▁packaging	-9444
mn	-9445
▁resolve	-9446
▁Standard	-9447
▁Square	-9448
ouses	-9449
▁handy	-9450
▁Sale	-9451
▁substance	-9452
▁governments	-9453
▁sang	-9454
▁thy	-9455
olis	-9456
arents	-9457
▁Photo	-9458
▁shelter	-9459
▁clicking	-9460
▁Bab	-9461
▁laughter	-9462
▁Broad	-9463
▁examination	-9464
agan	-9465
▁Clear	-9466
▁fewer	-9467
▁infection	-9468
▁constructed	-9469
▁Budd	-9470
▁removing	-9471
▁arrangements	-9472
%,	-9473
cope	-9474
▁Islam	-9475
▁Moon	-9476
itative	-9477
▁loop	-9478
▁Sho	-9479
▁jeans	-9480
▁frustrated	-9481
▁yeah	-9482
▁conserv	-9483
ources	-9484
▁restore	-9485
▁copper	-9486
▁crypt	-9487
▁SA	-9488
▁Mum	-9489
employ	-9490
aza	-9491
▁Radio	-9492
▁bored	-9493
▁harvest	-9494
▁Barb	-9495
▁tasty	-9496
▁Always	-9497
ilton	-9498
▁massage	-9499
ра	-9500
▁guns	-9501
▁Brook	-9502
▁EV	-9503
etch	-9504
▁followers	-9505
orious	-9506
▁realised	-9507
▁myth	-9508
▁durable	-9509
▁wherever	-9510
idy	-9511
▁Jews	-9512
burgh	-9513
ori	-9514
▁Kids	-9515
▁Stay	-9516
▁Perfect	-9517
▁enforcement	-9518
▁Kong	-9519
▁speaks	-9520
▁conversion	-9521
udes	-9522
▁shadows	-9523
▁distingu	-9524
▁colored	-9525
▁shy	-9526
▁expanded	-9527
▁describes	-9528
▁FL	-9529
▁Cub	-9530
▁reverse	-9531
vious	-9532
▁Tru	-9533
lined	-9534
▁treats	-9535
▁tournament	-9536
imental	-9537
Americ	-9538
amics	-9539
section	-9540
▁fabulous	-9541
▁forgive	-9542
RL	-9543
▁expense	-9544
rating	-9545
▁nursing	-9546
RC	-9547
▁contributions	-9548
▁shortly	-9549
▁resulted	-9550
uating	-9551
▁Simply	-9552
▁shaped	-9553
▁squeez	-9554
▁humanity	-9555
clude	-9556
▁alleged	-9557
aware	-9558
▁signals	-9559
▁panic	-9560
▁warri	-9561
▁meaningful	-9562
asses	-9563
sen	-9564
▁transf	-9565
EP	-9566
inton	-9567
▁defect	-9568
▁situated	-9569
flow	-9570
▁opposed	-9571
ami	-9572
▁vel	-9573
▁breathe	-9574
▁formula	-9575
▁principal	-9576
▁mounted	-9577
▁Ocean	-9578
▁brick	-9579
▁fulfill	-9580
▁exercises	-9581
▁promoting	-9582
▁spectacular	-9583
▁ly	-9584
▁Cut	-9585
▁Michel	-9586
▁tablet	-9587
oded	-9588
▁Gro	-9589
▁sons	-9590
▁Strateg	-9591
▁jumping	-9592
▁underneath	-9593
▁bands	-9594
▁towel	-9595
ockey	-9596
iami	-9597
alysis	-9598
▁abroad	-9599
▁chef	-9600
▁productivity	-9601
▁rou	-9602
bey	-9603
?!	-9604
▁neckl	-9605
▁investigate	-9606
▁pets	-9607
limited	-9608
herent	-9609
▁relaxing	-9610
▁conj	-9611
▁arrested	-9612
▁passenger	-9613
dam	-9614
▁III	-9615
piece	-9616
▁performances	-9617
aux	-9618
hesis	-9619
▁antib	-9620
▁stylish	-9621
▁resident	-9622
▁accommodate	-9623
▁Mind	-9624
▁suck	-9625
▁objectives	-9626
▁floating	-9627
oned	-9628
▁Cit	-9629
▁Lew	-9630
▁stretched	-9631
hu	-9632
▁shoe	-9633
▁Wat	-9634
▁hal	-9635
▁embrace	-9636
wart	-9637
▁confront	-9638
▁venture	-9639
obb	-9640
▁dried	-9641
ylvania	-9642
▁founder	-9643
▁AI	-9644
▁buzz	-9645
▁babies	-9646
▁prohib	-9647
▁WordPress	-9648
▁Anne	-9649
▁refund	-9650
▁Hong	-9651
▁Yeah	-9652
▁desktop	-9653
▁targeted	-9654
▁Var	-9655
▁domin	-9656
▁graphic	-9657
opher	-9658
▁amen	-9659
▁compete	-9660
▁overnight	-9661
▁struggled	-9662
▁respective	-9663
▁convey	-9664
▁servers	-9665
▁statistics	-9666
▁beef	-9667
▁wrist	-9668
▁reven	-9669
cca	-9670
onut	-9671
▁slic	-9672
▁climbing	-9673
▁simultane	-9674
▁Beautiful	-9675
▁Baby	-9676
▁torn	-9677
▁Along	-9678
▁BC	-9679
annah	-9680
▁tang	-9681
▁Albert	-9682
▁Major	-9683
▁outfit	-9684
▁Illinois	-9685
▁documentation	-9686
▁Winter	-9687
▁checks	-9688
▁Donald	-9689
▁delicate	-9690
▁eliminate	-9691
▁sequence	-9692
▁Excell	-9693
▁worker	-9694
▁anch	-9695
▁Studio	-9696
▁courts	-9697
▁centuries	-9698
letter	-9699
▁Plant	-9700
▁coloring	-9701
▁fox	-9702
▁beautifully	-9703
▁shame	-9704
▁delighted	-9705
▁twins	-9706
▁decrease	-9707
▁Ali	-9708
▁Annual	-9709
▁inev	-9710
▁Steven	-9711
▁tire	-9712
from	-9713
▁anniversary	-9714
atellite	-9715
▁blessed	-9716
▁balanced	-9717
▁Past	-9718
▁clubs	-9719
▁franch	-9720
rix	-9721
▁losses	-9722
▁thankful	-9723
▁divide	-9724
▁indoor	-9725
▁complement	-9726
▁acknowledge	-9727
▁Miller	-9728
▁Gallery	-9729
oln	-9730
▁Aw	-9731
▁Available	-9732
▁Arizona	-9733
▁cub	-9734
▁Talk	-9735
▁Anton	-9736
PM	-9737
▁Limited	-9738
style	-9739
▁Supreme	-9740
▁Leon	-9741
▁wolf	-9742
▁copyright	-9743
heim	-9744
otive	-9745
▁Pers	-9746
▁porch	-9747
urities	-9748
▁insect	-9749
▁Univers	-9750
▁stair	-9751
▁compact	-9752
▁Ky	-9753
▁washed	-9754
▁evaluate	-9755
▁passengers	-9756
▁Early	-9757
▁firmly	-9758
▁ensures	-9759
▁recruit	-9760
▁Apart	-9761
▁initiatives	-9762
▁Wilson	-9763
▁Brand	-9764
▁bottles	-9765
▁discussions	-9766
▁scenario	-9767
▁connecting	-9768
▁homeown	-9769
ropical	-9770
ESS	-9771
▁ware	-9772
▁paintings	-9773
▁Someone	-9774
▁Mix	-9775
oa	-9776
igue	-9777
▁remarkable	-9778
▁sake	-9779
▁hiring	-9780
▁margin	-9781
▁enhanced	-9782
▁globe	-9783
▁promises	-9784
▁Village	-9785
OUR	-9786
olph	-9787
▁Prior	-9788
▁enemies	-9789
▁gardens	-9790
▁nutri	-9791
▁oldest	-9792
▁los	-9793
▁Unlike	-9794
uum	-9795
cest	-9796
inery	-9797
▁occasionally	-9798
▁NC	-9799
allas	-9800
vard	-9801
▁employers	-9802
▁DI	-9803
▁bump	-9804
▁sisters	-9805
▁Products	-9806
▁Rachel	-9807
▁mysterious	-9808
▁Laure	-9809
▁hired	-9810
▁virtually	-9811
▁Deb	-9812
▁ranging	-9813
▁differently	-9814
▁nicely	-9815
▁Republican	-9816
▁locks	-9817
▁inex	-9818
▁quotes	-9819
produ	-9820
▁chin	-9821
▁smoking	-9822
cled	-9823
organ	-9824
▁weakness	-9825
ghan	-9826
pson	-9827
▁oxygen	-9828
▁territory	-9829
▁Snow	-9830
▁Beh	-9831
▁thri	-9832
epend	-9833
▁ا	-9834
▁Chall	-9835
▁exterior	-9836
olen	-9837
▁reaches	-9838
▁horn	-9839
▁ridic	-9840
▁Band	-9841
▁valley	-9842
▁beliefs	-9843
▁vertical	-9844
▁gang	-9845
EG	-9846
▁cooperation	-9847
▁laz	-9848
▁clip	-9849
▁disag	-9850
▁scent	-9851
▁assault	-9852
makers	-9853
▁grandma	-9854
▁stranger	-9855
▁highlights	-9856
▁friendship	-9857
▁overwhelming	-9858
TP	-9859
oen	-9860
▁Tan	-9861
▁soap	-9862
▁fridge	-9863
▁Consult	-9864
bourne	-9865
▁reserve	-9866
▁destruction	-9867
BM	-9868
▁Pra	-9869
▁Level	-9870
screen	-9871
▁coins	-9872
▁fireplace	-9873
▁rings	-9874
▁Share	-9875
▁beans	-9876
▁portable	-9877
HA	-9878
kward	-9879
omic	-9880
cludes	-9881
▁composition	-9882
▁foam	-9883
▁Ask	-9884
▁Lic	-9885
▁Create	-9886
▁campaigns	-9887
vo	-9888
▁relating	-9889
▁Dur	-9890
▁subtle	-9891
Ah	-9892
▁Cand	-9893
▁oral	-9894
▁Histor	-9895
▁ox	-9896
aval	-9897
▁equity	-9898
▁investing	-9899
▁consistently	-9900
▁accomplished	-9901
▁angel	-9902
vet	-9903
▁soldier	-9904
▁emphasis	-9905
▁heritage	-9906
▁mos	-9907
unes	-9908
▁Save	-9909
▁Must	-9910
▁coaching	-9911
▁Base	-9912
▁parad	-9913
▁elderly	-9914
▁Andy	-9915
▁volt	-9916
▁fifty	-9917
boards	-9918
▁backup	-9919
▁Jr	-9920
▁alien	-9921
▁settlement	-9922
▁vulnerable	-9923
▁Davis	-9924
▁jam	-9925
rend	-9926
▁decline	-9927
▁Merc	-9928
▁anybody	-9929
▁Ont	-9930
▁demonstrated	-9931
cor	-9932
▁flights	-9933
▁reflection	-9934
▁brid	-9935
▁Vi	-9936
▁Sound	-9937
▁actively	-9938
oween	-9939
▁Creek	-9940
▁thumb	-9941
▁retired	-9942
ifi	-9943
▁trailer	-9944
▁les	-9945
acent	-9946
▁Requ	-9947
▁whereas	-9948
▁dramatic	-9949
oper	-9950
▁frequent	-9951
▁Fut	-9952
shire	-9953
▁Comb	-9954
▁cozy	-9955
▁habits	-9956
iders	-9957
▁poison	-9958
▁priest	-9959
▁vacc	-9960
▁writes	-9961
sed	-9962
▁roughly	-9963
▁Penns	-9964
▁poured	-9965
▁indicates	-9966
▁Morgan	-9967
▁modified	-9968
▁scrap	-9969
▁Dor	-9970
▁regulatory	-9971
▁balloon	-9972
▁interviews	-9973
visor	-9974
▁arrangement	-9975
но	-9976
gi	-9977
▁vice	-9978
▁CN	-9979
▁Change	-9980
▁explo	-9981
▁utilize	-9982
▁FA	-9983
▁MD	-9984
▁Py	-9985
▁True	-9986
▁developer	-9987
esty	-9988
▁feather	-9989
▁attempted	-9990
▁Edward	-9991
▁banking	-9992
▁celebrated	-9993
▁tuck	-9994
▁occasions	-9995
▁Houston	-9996
▁pant	-9997
▁Hollywood	-9998
ERS	-9999
wa	-10000
▁basement	-10001
▁networking	-10002
▁lined	-10003
PN	-10004
▁Hur	-10005
▁buyer	-10006
▁diabetes	-10007
hop	-10008
▁parameters	-10009
Thanks	-10010
▁bass	-10011
▁Miami	-10012
▁Too	-10013
▁Gree	-10014
▁keen	-10015
▁Analy	-10016
▁Palest	-10017
▁smartphone	-10018
ften	-10019
▁fiber	-10020
ifier	-10021
cience	-10022
▁stiff	-10023
ensing	-10024
▁tremend	-10025
▁engineers	-10026
▁compe	-10027
▁bits	-10028
▁Susan	-10029
▁emerged	-10030
▁homework	-10031
▁Agreement	-10032
▁abandoned	-10033
▁caf	-10034
▁Film	-10035
pton	-10036
▁mit	-10037
▁Student	-10038
▁supplied	-10039
▁tray	-10040
▁nuts	-10041
▁hated	-10042
Se	-10043
▁edit	-10044
▁landsc	-10045
oving	-10046
▁chip	-10047
through	-10048
▁accompanied	-10049
▁fert	-10050
▁twin	-10051
▁laundry	-10052
▁retreat	-10053
INE	-10054
▁municip	-10055
▁о	-10056
rape	-10057
▁Copyright	-10058
aph	-10059
▁Eventually	-10060
cm	-10061
inks	-10062
▁workplace	-10063
▁quit	-10064
▁rod	-10065
agraph	-10066
oto	-10067
roph	-10068
▁hills	-10069
igious	-10070
▁Front	-10071
▁alike	-10072
▁operational	-10073
▁Dom	-10074
▁Nature	-10075
▁cheaper	-10076
▁Tech	-10077
▁embod	-10078
▁supplier	-10079
▁lin	-10080
▁ugly	-10081
▁produces	-10082
▁designing	-10083
▁extraordinary	-10084
▁cm	-10085
▁Danny	-10086
▁naked	-10087
▁neutral	-10088
▁Architect	-10089
incoln	-10090
mad	-10091
▁blew	-10092
▁Motor	-10093
▁whisper	-10094
▁Bear	-10095
effect	-10096
▁Barn	-10097
▁neighbors	-10098
agle	-10099
pool	-10100
▁virus	-10101
▁Map	-10102
▁Chem	-10103
inking	-10104
cop	-10105
imm	-10106
▁grasp	-10107
▁breeze	-10108
ivals	-10109
▁Gard	-10110
regon	-10111
▁Iron	-10112
▁spoon	-10113
▁Eli	-10114
▁radi	-10115
▁cogn	-10116
▁Action	-10117
▁processed	-10118
pha	-10119
▁SD	-10120
▁blond	-10121
sung	-10122
verty	-10123
▁Large	-10124
▁advertise	-10125
▁universities	-10126
▁administrative	-10127
▁na	-10128
▁Collection	-10129
interest	-10130
▁assignment	-10131
▁representatives	-10132
▁verse	-10133
▁producer	-10134
▁Hind	-10135
▁Age	-10136
▁Books	-10137
▁Edition	-10138
▁curriculum	-10139
′′	-10140
▁subsequent	-10141
▁separated	-10142
▁Pennsylvania	-10143
▁reass	-10144
▁acquisition	-10145
▁Member	-10146
▁TR	-10147
▁iPad	-10148
▁dipl	-10149
▁shining	-10150
QL	-10151
inging	-10152
iar	-10153
▁bush	-10154
▁quantity	-10155
riel	-10156
▁Rail	-10157
▁fucking	-10158
▁fascinating	-10159
ella	-10160
nell	-10161
mercial	-10162
▁immune	-10163
▁ma	-10164
umbling	-10165
▁circles	-10166
ORD	-10167
▁awkward	-10168
▁bomb	-10169
▁Similar	-10170
▁editing	-10171
▁slots	-10172
▁nutrition	-10173
▁NO	-10174
▁towns	-10175
▁Return	-10176
inted	-10177
▁transformation	-10178
rub	-10179
▁fifteen	-10180
▁embed	-10181
▁encouraging	-10182
▁export	-10183
▁Transport	-10184
▁refers	-10185
▁lasting	-10186
▁Regist	-10187
▁protest	-10188
abling	-10189
▁pine	-10190
▁poverty	-10191
▁diagnosis	-10192
▁incent	-10193
▁divorce	-10194
▁lawyers	-10195
▁Protection	-10196
ante	-10197
bling	-10198
ti	-10199
▁cheeks	-10200
Or	-10201
▁locally	-10202
▁integrity	-10203
▁Isa	-10204
▁Trade	-10205
▁olive	-10206
▁Grant	-10207
▁Retrieved	-10208
bably	-10209
iva	-10210
▁artificial	-10211
▁Marsh	-10212
▁grocery	-10213
▁Hal	-10214
▁blur	-10215
▁Rs	-10216
▁tours	-10217
▁desp	-10218
▁picks	-10219
▁Cli	-10220
ieve	-10221
▁Angel	-10222
itating	-10223
▁Pear	-10224
▁opposition	-10225
▁holy	-10226
▁churches	-10227
▁templates	-10228
▁developments	-10229
▁bund	-10230
▁utter	-10231
▁pockets	-10232
▁secured	-10233
▁instinct	-10234
cr	-10235
Get	-10236
▁Model	-10237
▁admin	-10238
▁Turkey	-10239
▁chemicals	-10240
▁excuse	-10241
▁cancell	-10242
▁':	-10243
anguage	-10244
▁graduated	-10245
▁sophisticated	-10246
hou	-10247
▁compatible	-10248
icity	-10249
▁Method	-10250
▁delivers	-10251
▁retain	-10252
▁Manufact	-10253
▁Partners	-10254
arer	-10255
▁inspire	-10256
▁Columbia	-10257
▁Hawai	-10258
vol	-10259
▁BE	-10260
▁dose	-10261
rations	-10262
▁parks	-10263
▁robust	-10264
▁corrid	-10265
▁Theatre	-10266
ao	-10267
▁winners	-10268
▁sunshine	-10269
▁representation	-10270
▁Beck	-10271
▁Prim	-10272
▁advised	-10273
▁unlikely	-10274
▁bulk	-10275
▁bee	-10276
▁ALL	-10277
▁Bat	-10278
▁Anyway	-10279
▁stare	-10280
▁gradually	-10281
▁publishing	-10282
▁entrepreneurs	-10283
rep	-10284
▁BM	-10285
▁handful	-10286
▁aest	-10287
▁genetic	-10288
▁Currently	-10289
anie	-10290
▁Own	-10291
▁suits	-10292
quarters	-10293
enz	-10294
▁ft	-10295
▁Trad	-10296
▁defeat	-10297
market	-10298
▁essence	-10299
▁observe	-10300
▁approaching	-10301
▁translation	-10302
▁Ang	-10303
▁Ast	-10304
▁slept	-10305
▁specialists	-10306
▁Nut	-10307
▁versus	-10308
rup	-10309
▁Dead	-10310
▁secrets	-10311
▁Express	-10312
▁gigg	-10313
▁damages	-10314
▁Diego	-10315
▁wiped	-10316
▁controvers	-10317
▁Imp	-10318
▁moisture	-10319
▁dece	-10320
▁ber	-10321
▁Name	-10322
▁spun	-10323
▁lightly	-10324
uates	-10325
▁sooner	-10326
eav	-10327
▁punch	-10328
▁steep	-10329
▁cruise	-10330
▁collective	-10331
▁vendors	-10332
CO	-10333
umbing	-10334
iev	-10335
▁Blood	-10336
▁strip	-10337
inge	-10338
itzer	-10339
▁Cover	-10340
▁NAS	-10341
Sorry	-10342
▁refe	-10343
▁hello	-10344
▁guides	-10345
▁pregnancy	-10346
▁SE	-10347
scale	-10348
▁specialized	-10349
▁closest	-10350
▁SO	-10351
▁Kay	-10352
▁bitter	-10353
▁variable	-10354
▁demanded	-10355
▁elections	-10356
▁logic	-10357
▁Computer	-10358
▁lowered	-10359
▁EX	-10360
▁abstract	-10361
▁purchases	-10362
▁practition	-10363
▁collections	-10364
▁transferred	-10365
▁Clean	-10366
▁caps	-10367
otte	-10368
asion	-10369
▁Grow	-10370
▁armed	-10371
▁bio	-10372
▁jet	-10373
▁bugs	-10374
▁tune	-10375
▁cups	-10376
▁salary	-10377
▁Song	-10378
▁Taking	-10379
▁completing	-10380
▁span	-10381
▁receipt	-10382
▁burden	-10383
thur	-10384
▁Story	-10385
ulator	-10386
▁spacious	-10387
ERE	-10388
▁PH	-10389
eous	-10390
▁hosts	-10391
▁Estate	-10392
▁printer	-10393
door	-10394
▁shine	-10395
▁snacks	-10396
cies	-10397
▁bacteria	-10398
▁Description	-10399
▁involvement	-10400
▁Tob	-10401
▁guided	-10402
seless	-10403
▁publish	-10404
▁representing	-10405
oning	-10406
▁Indeed	-10407
▁edited	-10408
▁collecting	-10409
▁announcement	-10410
orship	-10411
▁manifest	-10412
isd	-10413
▁testim	-10414
iffs	-10415
▁tourist	-10416
estone	-10417
worthy	-10418
▁feeding	-10419
▁contacts	-10420
▁cultures	-10421
▁Hey	-10422
▁fears	-10423
ologists	-10424
▁lecture	-10425
▁efficiently	-10426
▁fate	-10427
agger	-10428
immer	-10429
tains	-10430
▁Making	-10431
▁Oregon	-10432
ethe	-10433
▁Upon	-10434
▁crisp	-10435
iatric	-10436
hell	-10437
▁bullet	-10438
▁anxious	-10439
▁sectors	-10440
inator	-10441
▁hurry	-10442
▁composed	-10443
aki	-10444
▁CON	-10445
▁powered	-10446
▁encl	-10447
▁Type	-10448
▁stem	-10449
▁Dutch	-10450
▁Paper	-10451
▁Samsung	-10452
▁acceptable	-10453
ml	-10454
Qu	-10455
▁trials	-10456
▁Lincoln	-10457
▁shifted	-10458
▁sized	-10459
▁attacked	-10460
beat	-10461
acter	-10462
bul	-10463
▁beast	-10464
aha	-10465
rus	-10466
▁oils	-10467
agra	-10468
▁evident	-10469
▁reb	-10470
▁Helen	-10471
erals	-10472
they	-10473
▁permitted	-10474
ottage	-10475
ders	-10476
erving	-10477
AND	-10478
▁Credit	-10479
▁prosec	-10480
▁awake	-10481
abs	-10482
▁races	-10483
▁Gre	-10484
▁dash	-10485
▁Dallas	-10486
▁ladder	-10487
wed	-10488
▁underlying	-10489
▁innocent	-10490
на	-10491
mind	-10492
▁aqu	-10493
▁cooling	-10494
▁wildlife	-10495
▁penc	-10496
▁rubbed	-10497
▁decides	-10498
▁nearest	-10499
▁financing	-10500
▁grandmother	-10501
sts	-10502
▁Tree	-10503
▁profits	-10504
▁bust	-10505
▁lately	-10506
▁keyboard	-10507
▁Fab	-10508
▁Les	-10509
▁forty	-10510
▁operator	-10511
▁Core	-10512
▁Third	-10513
▁regulation	-10514
▁Grandma	-10515
At	-10516
esis	-10517
▁Ban	-10518
▁agenda	-10519
▁reviewed	-10520
▁vibrant	-10521
▁sticks	-10522
ugs	-10523
uana	-10524
▁stub	-10525
enth	-10526
called	-10527
▁adequate	-10528
▁directory	-10529
icop	-10530
▁Daily	-10531
▁beaches	-10532
onda	-10533
▁productive	-10534
▁fer	-10535
pless	-10536
▁Until	-10537
▁blocked	-10538
▁batteries	-10539
▁Staff	-10540
▁Atlantic	-10541
▁expanding	-10542
▁seemingly	-10543
▁EN	-10544
▁brace	-10545
▁patience	-10546
guard	-10547
▁briefly	-10548
▁theatre	-10549
▁artistic	-10550
▁potatoes	-10551
▁rif	-10552
▁grain	-10553
berries	-10554
▁disorder	-10555
▁Blu	-10556
▁surfaces	-10557
▁facilitate	-10558
▁Fu	-10559
month	-10560
▁Material	-10561
▁precisely	-10562
▁dimensions	-10563
▁lid	-10564
▁rehab	-10565
TE	-10566
ishop	-10567
▁Cool	-10568
semble	-10569
▁march	-10570
▁Luck	-10571
▁hunt	-10572
▁Seattle	-10573
▁generic	-10574
▁pir	-10575
▁Cher	-10576
▁Ukr	-10577
hum	-10578
▁Getting	-10579
▁preced	-10580
▁solely	-10581
gust	-10582
▁Solutions	-10583
urious	-10584
▁Andre	-10585
▁Anyone	-10586
mi	-10587
olds	-10588
burn	-10589
ungle	-10590
▁Nice	-10591
▁User	-10592
▁Vice	-10593
▁portal	-10594
▁и	-10595
▁BB	-10596
▁accidentally	-10597
AB	-10598
▁Gi	-10599
▁twisted	-10600
▁Easter	-10601
▁advise	-10602
▁inhib	-10603
▁Experience	-10604
▁provisions	-10605
oons	-10606
▁Glass	-10607
▁Money	-10608
▁accent	-10609
▁Pete	-10610
▁Script	-10611
▁cultiv	-10612
▁universal	-10613
.;	-10614
▁deliber	-10615
▁enabled	-10616
▁signing	-10617
▁snake	-10618
▁earnings	-10619
apse	-10620
▁Fast	-10621
▁Furn	-10622
▁locate	-10623
.....	-10624
▁Laura	-10625
▁inhab	-10626
▁spirits	-10627
▁HR	-10628
▁bicy	-10629
asures	-10630
▁magnific	-10631
▁Rus	-10632
▁capability	-10633
▁inher	-10634
▁portra	-10635
lar	-10636
wick	-10637
eled	-10638
▁rational	-10639
▁blogs	-10640
▁tradem	-10641
olves	-10642
▁puzzle	-10643
▁Innov	-10644
▁apples	-10645
▁fitted	-10646
▁dressing	-10647
Mom	-10648
wen	-10649
▁theater	-10650
▁sandwich	-10651
▁troops	-10652
▁aluminum	-10653
udi	-10654
stic	-10655
▁odds	-10656
▁Ian	-10657
▁gods	-10658
uf	-10659
▁Appro	-10660
▁phrase	-10661
▁enjoyable	-10662
▁hem	-10663
▁streaming	-10664
▁amenities	-10665
▁travelling	-10666
▁subsid	-10667
azing	-10668
▁AB	-10669
▁ya	-10670
▁Alan	-10671
▁Imm	-10672
▁fantasy	-10673
▁attempting	-10674
arma	-10675
▁Vietnam	-10676
▁duration	-10677
▁dependent	-10678
▁determination	-10679
▁Altern	-10680
▁timing	-10681
▁GM	-10682
sea	-10683
▁stove	-10684
▁embarrassed	-10685
▁Joy	-10686
▁pix	-10687
▁invitation	-10688
pot	-10689
▁Cape	-10690
▁squirrel	-10691
ingham	-10692
▁Mort	-10693
▁Pick	-10694
▁dropping	-10695
▁Halloween	-10696
▁Shel	-10697
▁pron	-10698
▁acceptance	-10699
▁entity	-10700
▁senses	-10701
▁Scient	-10702
▁gambling	-10703
▁***	-10704
▁Say	-10705
▁wiring	-10706
adelph	-10707
atherine	-10708
▁Sant	-10709
▁Aqu	-10710
▁Bird	-10711
minute	-10712
owered	-10713
gun	-10714
▁touching	-10715
▁CL	-10716
▁parallel	-10717
▁invention	-10718
grade	-10719
▁Body	-10720
▁summary	-10721
intend	-10722
▁Given	-10723
▁belly	-10724
pers	-10725
▁ignor	-10726
▁newest	-10727
▁corners	-10728
zens	-10729
▁Tenn	-10730
▁insisted	-10731
▁seller	-10732
▁carrier	-10733
iches	-10734
▁grid	-10735
▁Aid	-10736
comed	-10737
▁ank	-10738
▁Kansas	-10739
there	-10740
%)	-10741
▁incom	-10742
ormal	-10743
▁frames	-10744
▁Poly	-10745
▁beloved	-10746
▁releases	-10747
pay	-10748
ighters	-10749
▁threats	-10750
▁honestly	-10751
▁Vers	-10752
▁Gun	-10753
▁intensity	-10754
ро	-10755
▁Alexander	-10756
gency	-10757
iller	-10758
▁underground	-10759
esy	-10760
etts	-10761
▁striking	-10762
dep	-10763
▁IV	-10764
▁Sorry	-10765
▁width	-10766
▁collar	-10767
izard	-10768
unted	-10769
▁worthy	-10770
▁physician	-10771
cure	-10772
iate	-10773
▁Ontario	-10774
▁photographer	-10775
iox	-10776
achus	-10777
▁Friends	-10778
▁Marg	-10779
▁troubles	-10780
▁engineer	-10781
▁prescription	-10782
▁interactions	-10783
itual	-10784
fulness	-10785
velation	-10786
▁adoption	-10787
▁Raj	-10788
▁artwork	-10789
▁(“	-10790
▁customized	-10791
▁Decor	-10792
▁digest	-10793
▁noises	-10794
▁execution	-10795
▁qualities	-10796
lah	-10797
▁picnic	-10798
▁jealous	-10799
▁lease	-10800
▁distur	-10801
▁steal	-10802
▁garlic	-10803
▁workout	-10804
onymous	-10805
▁convince	-10806
▁stocks	-10807
▁cabinets	-10808
eze	-10809
nesota	-10810
lan	-10811
dale	-10812
▁deleg	-10813
▁fleet	-10814
▁lounge	-10815
overs	-10816
▁fitting	-10817
▁Complete	-10818
▁champion	-10819
▁DJ	-10820
▁ta	-10821
▁Server	-10822
▁Rain	-10823
▁prominent	-10824
▁',	-10825
adelphia	-10826
▁charging	-10827
via	-10828
▁Effect	-10829
▁births	-10830
▁shorter	-10831
▁desperate	-10832
▁trails	-10833
▁****	-10834
necess	-10835
▁divine	-10836
▁worlds	-10837
rin	-10838
▁Roy	-10839
▁endeav	-10840
▁Cooper	-10841
▁spectrum	-10842
iosity	-10843
▁Content	-10844
rec	-10845
▁intim	-10846
▁Ross	-10847
▁elevator	-10848
▁reflected	-10849
▁podcast	-10850
yler	-10851
▁iOS	-10852
▁Jonathan	-10853
▁sacrifice	-10854
▁Sciences	-10855
▁competitors	-10856
▁sunlight	-10857
▁Bush	-10858
▁Cole	-10859
UM	-10860
acking	-10861
▁rated	-10862
▁catching	-10863
▁stroke	-10864
▁unh	-10865
▁mature	-10866
▁screaming	-10867
▁symp	-10868
▁drunk	-10869
ifferent	-10870
robe	-10871
pling	-10872
▁dull	-10873
▁countless	-10874
▁necklace	-10875
▁restrictions	-10876
▁contributed	-10877
UC	-10878
▁Empire	-10879
▁charming	-10880
▁possession	-10881
▁prints	-10882
▁ore	-10883
▁tale	-10884
▁compound	-10885
▁IM	-10886
▁Number	-10887
▁stolen	-10888
▁anytime	-10889
unting	-10890
▁references	-10891
sl	-10892
▁sliding	-10893
▁appliances	-10894
aky	-10895
Here	-10896
▁Figure	-10897
▁Electric	-10898
▁font	-10899
▁loudly	-10900
▁Overall	-10901
▁organize	-10902
▁eaten	-10903
▁hence	-10904
forward	-10905
▁estimates	-10906
mith	-10907
high	-10908
stall	-10909
▁difficulties	-10910
igence	-10911
▁concluded	-10912
▁GP	-10913
utors	-10914
▁Burn	-10915
▁Hello	-10916
▁tennis	-10917
kers	-10918
▁Rather	-10919
▁collaps	-10920
ervice	-10921
▁para	-10922
▁scal	-10923
▁Construction	-10924
▁Navy	-10925
▁Nations	-10926
▁Democratic	-10927
▁medic	-10928
▁Season	-10929
▁poetry	-10930
▁reluct	-10931
▁electro	-10932
inkle	-10933
▁booth	-10934
▁admission	-10935
▁legacy	-10936
▁Explore	-10937
▁identification	-10938
▁Atlanta	-10939
▁soot	-10940
▁besides	-10941
▁intervention	-10942
▁violent	-10943
▁Tai	-10944
▁Aaron	-10945
▁considerable	-10946
aughters	-10947
▁loads	-10948
▁Near	-10949
▁tricks	-10950
graduate	-10951
▁lun	-10952
▁urge	-10953
▁parked	-10954
alm	-10955
▁grows	-10956
▁Stop	-10957
▁Golf	-10958
▁Anderson	-10959
▁Exchange	-10960
▁deer	-10961
ilation	-10962
▁overview	-10963
▁Less	-10964
AV	-10965
▁rect	-10966
ruit	-10967
▁complaint	-10968
bean	-10969
▁survived	-10970
erior	-10971
▁cyber	-10972
▁desires	-10973
ureau	-10974
▁mate	-10975
▁Finance	-10976
▁Application	-10977
▁socc	-10978
eman	-10979
▁bearing	-10980
▁trap	-10981
▁acres	-10982
▁hospitals	-10983
gments	-10984
▁soccer	-10985
igs	-10986
▁recept	-10987
▁py	-10988
▁Islamic	-10989
▁forming	-10990
▁EC	-10991
papers	-10992
▁beating	-10993
urd	-10994
arts	-10995
▁persu	-10996
▁spine	-10997
▁fundra	-10998
▁kilomet	-10999
tends	-11000
ationally	-11001
inates	-11002
▁Heaven	-11003
rine	-11004
▁Break	-11005
▁Located	-11006
▁qualify	-11007
▁incl	-11008
▁accused	-11009
▁fog	-11010
▁gam	-11011
▁Grad	-11012
▁metab	-11013
▁handled	-11014
▁bom	-11015
▁Imag	-11016
natural	-11017
isure	-11018
▁Compan	-11019
▁exclusively	-11020
ova	-11021
▁Wow	-11022
▁deem	-11023
▁athletes	-11024
▁Minnesota	-11025
▁Wy	-11026
▁Valent	-11027
▁Bol	-11028
▁Malays	-11029
▁tasted	-11030
▁welcomed	-11031
▁($	-11032
▁Cell	-11033
▁spat	-11034
▁strive	-11035
▁aggressive	-11036
▁Lewis	-11037
whe	-11038
cond	-11039
▁rode	-11040
mented	-11041
▁narrative	-11042
▁Sep	-11043
▁Study	-11044
▁regards	-11045
▁examined	-11046
▁adjusted	-11047
▁Independ	-11048
▁horrible	-11049
▁musicians	-11050
oven	-11051
▁Gene	-11052
▁fastest	-11053
▁Han	-11054
▁Gary	-11055
▁dock	-11056
▁establishment	-11057
▁FIG	-11058
▁empower	-11059
▁dict	-11060
!”	-11061
▁avo	-11062
▁disgust	-11063
who	-11064
▁Wars	-11065
card	-11066
▁toxic	-11067
▁Magazine	-11068
imens	-11069
▁Collect	-11070
▁Planning	-11071
▁Kit	-11072
nowned	-11073
▁communic	-11074
▁Linux	-11075
▁Memorial	-11076
eron	-11077
▁folded	-11078
▁entertaining	-11079
▁vin	-11080
holder	-11081
▁designated	-11082
▁discussing	-11083
▁personalized	-11084
ridge	-11085
▁inspiring	-11086
▁meditation	-11087
See	-11088
▁dive	-11089
▁outdoors	-11090
▁surroundings	-11091
▁ampl	-11092
ijuana	-11093
▁pressing	-11094
▁subscription	-11095
ART	-11096
▁ancest	-11097
anchester	-11098
▁demanding	-11099
▁corpor	-11100
▁popularity	-11101
nut	-11102
▁cared	-11103
ieties	-11104
▁mixing	-11105
▁laboratory	-11106
▁Row	-11107
▁highway	-11108
▁operators	-11109
chair	-11110
ourse	-11111
ailing	-11112
▁pulls	-11113
osystem	-11114
▁ranked	-11115
▁Bull	-11116
▁retrie	-11117
▁Ale	-11118
apters	-11119
▁Really	-11120
▁clay	-11121
▁gross	-11122
▁coinc	-11123
▁inval	-11124
aria	-11125
oly	-11126
▁Tro	-11127
▁Okay	-11128
▁operates	-11129
owa	-11130
▁dolls	-11131
▁wallet	-11132
▁mush	-11133
▁maker	-11134
▁Temple	-11135
▁clearing	-11136
▁Cancer	-11137
▁accompany	-11138
▁Mars	-11139
▁Industry	-11140
▁paragraph	-11141
▁oak	-11142
▁trunk	-11143
▁ultra	-11144
lend	-11145
▁Lux	-11146
▁Tel	-11147
▁Philadelphia	-11148
▁superb	-11149
▁consulting	-11150
▁Sell	-11151
Our	-11152
mann	-11153
▁cho	-11154
▁Advent	-11155
▁bloody	-11156
▁suited	-11157
▁reminder	-11158
edge	-11159
▁companion	-11160
▁measurement	-11161
▁Lam	-11162
▁Birth	-11163
usalem	-11164
achusetts	-11165
▁refuse	-11166
▁Magn	-11167
▁rude	-11168
▁immun	-11169
▁carries	-11170
▁terminal	-11171
athon	-11172
▁junk	-11173
▁winds	-11174
▁heated	-11175
▁directors	-11176
▁departments	-11177
mod	-11178
▁interpretation	-11179
▁Inn	-11180
▁Environmental	-11181
utical	-11182
▁doorway	-11183
▁discipline	-11184
only	-11185
▁Sean	-11186
chain	-11187
▁manufactured	-11188
wind	-11189
▁gasped	-11190
▁barrier	-11191
▁incorporate	-11192
▁vig	-11193
▁tatt	-11194
▁mineral	-11195
▁structural	-11196
▁strain	-11197
▁folk	-11198
▁faint	-11199
▁simultaneously	-11200
▁squad	-11201
▁Kal	-11202
▁semin	-11203
▁existed	-11204
▁backpack	-11205
▁Assistant	-11206
▁Korean	-11207
▁suspend	-11208
▁Ans	-11209
▁relate	-11210
▁Fresh	-11211
▁invis	-11212
pract	-11213
▁effectiveness	-11214
▁Pain	-11215
▁Crusher	-11216
▁processor	-11217
▁frustration	-11218
▁Better	-11219
▁pear	-11220
▁souls	-11221
▁Ped	-11222
covery	-11223
▁console	-11224
Man	-11225
▁od	-11226
ports	-11227
▁Hills	-11228
▁Corn	-11229
▁jurisd	-11230
▁shades	-11231
▁timely	-11232
uros	-11233
▁cer	-11234
▁swung	-11235
▁AG	-11236
▁Integr	-11237
▁comply	-11238
osph	-11239
essed	-11240
home	-11241
▁Gil	-11242
▁coupon	-11243
▁preserve	-11244
▁stays	-11245
▁entries	-11246
▁donation	-11247
▁achieving	-11248
▁politicians	-11249
▁practically	-11250
▁Ay	-11251
▁intu	-11252
▁tossed	-11253
▁sock	-11254
sembly	-11255
▁Anthony	-11256
▁varied	-11257
etheless	-11258
▁dread	-11259
▁discounts	-11260
▁vacuum	-11261
▁impacts	-11262
▁render	-11263
▁smelled	-11264
▁Buck	-11265
▁motivated	-11266
▁motivation	-11267
▁Sac	-11268
▁ME	-11269
▁wines	-11270
▁flowing	-11271
▁crossing	-11272
▁grinding	-11273
▁Deep	-11274
▁Double	-11275
▁horm	-11276
▁teddy	-11277
▁affects	-11278
▁detection	-11279
Jo	-11280
cal	-11281
▁tires	-11282
▁Advanced	-11283
tic	-11284
▁debr	-11285
▁stumbled	-11286
▁unnecess	-11287
▁penet	-11288
▁tourists	-11289
▁limitations	-11290
▁Truth	-11291
▁producers	-11292
▁Berlin	-11293
▁Castle	-11294
airy	-11295
▁witch	-11296
▁Ry	-11297
▁peer	-11298
▁paths	-11299
▁balcon	-11300
▁islands	-11301
gener	-11302
orneys	-11303
▁praise	-11304
▁prevention	-11305
▁optimal	-11306
▁Manchester	-11307
▁guilt	-11308
Bec	-11309
▁cust	-11310
▁Oxford	-11311
unct	-11312
▁marine	-11313
▁devast	-11314
▁lighter	-11315
▁Economic	-11316
▁corresponding	-11317
▁stead	-11318
▁Massachusetts	-11319
▁Gord	-11320
ortion	-11321
▁appet	-11322
▁crit	-11323
Ad	-11324
▁garbage	-11325
▁Contract	-11326
▁Ton	-11327
gression	-11328
▁threatened	-11329
▁coconut	-11330
▁chill	-11331
▁thigh	-11332
▁screening	-11333
▁selecting	-11334
▁contractor	-11335
vals	-11336
▁broker	-11337
▁unfortunately	-11338
▁Belg	-11339
▁diameter	-11340
iscal	-11341
▁damp	-11342
▁aggreg	-11343
five	-11344
▁None	-11345
▁Impro	-11346
ims	-11347
▁Portug	-11348
▁automated	-11349
▁Peace	-11350
itivity	-11351
▁associate	-11352
▁identifying	-11353
onsin	-11354
▁spinning	-11355
▁traveled	-11356
UD	-11357
andra	-11358
▁intrig	-11359
▁eternal	-11360
▁neglect	-11361
▁Governor	-11362
▁tackle	-11363
▁awa	-11364
arently	-11365
▁receives	-11366
▁containers	-11367
▁kindness	-11368
▁conservation	-11369
▁grim	-11370
▁Parliament	-11371
▁protective	-11372
▁Balt	-11373
▁monkey	-11374
▁PL	-11375
▁Youth	-11376
▁Jerusalem	-11377
▁Melbourne	-11378
▁denied	-11379
isconsin	-11380
▁interrupted	-11381
▁к	-11382
▁Jerry	-11383
orse	-11384
oenix	-11385
▁arrow	-11386
olesale	-11387
▁Indones	-11388
▁disorders	-11389
▁API	-11390
▁Diam	-11391
то	-11392
▁hesitate	-11393
▁emissions	-11394
brew	-11395
▁adopt	-11396
ressing	-11397
▁Represent	-11398
fare	-11399
▁selfish	-11400
▁nu	-11401
▁Text	-11402
▁franchise	-11403
▁Gas	-11404
▁unl	-11405
▁clinic	-11406
apa	-11407
▁barrel	-11408
▁Sov	-11409
▁funeral	-11410
▁chuckled	-11411
▁upstairs	-11412
▁satellite	-11413
lette	-11414
rell	-11415
▁treating	-11416
▁UC	-11417
omer	-11418
ishers	-11419
▁comedy	-11420
App	-11421
▁rainbow	-11422
▁disrupt	-11423
▁teaches	-11424
▁thunder	-11425
aceutical	-11426
quer	-11427
▁Autom	-11428
▁swings	-11429
▁synd	-11430
▁dealer	-11431
hh	-11432
ATE	-11433
▁Pok	-11434
▁prest	-11435
▁las	-11436
▁trace	-11437
▁Property	-11438
▁placement	-11439
olas	-11440
reck	-11441
istical	-11442
▁girlfriend	-11443
Because	-11444
▁gem	-11445
▁reads	-11446
▁Source	-11447
▁auction	-11448
cs	-11449
▁fortun	-11450
▁weigh	-11451
▁Karen	-11452
▁skirt	-11453
▁boyfriend	-11454
▁symbols	-11455
▁blast	-11456
▁cinem	-11457
ictions	-11458
fo	-11459
▁URL	-11460
izations	-11461
▁credits	-11462
▁measuring	-11463
▁Wales	-11464
rain	-11465
▁skull	-11466
▁restoration	-11467
▁Move	-11468
▁voters	-11469
▁pdf	-11470
▁conditioning	-11471
▁€	-11472
▁Agr	-11473
▁flaw	-11474
American	-11475
▁Resources	-11476
▁realistic	-11477
▁fork	-11478
irable	-11479
azines	-11480
ussion	-11481
▁tempor	-11482
▁Allen	-11483
▁identical	-11484
▁lightweight	-11485
Os	-11486
quet	-11487
▁Sym	-11488
▁hybrid	-11489
oz	-11490
▁Rap	-11491
▁apartments	-11492
ndant	-11493
erk	-11494
▁remod	-11495
▁Wolf	-11496
DC	-11497
▁freely	-11498
▁practicing	-11499
ILL	-11500
▁resemb	-11501
iasm	-11502
oria	-11503
▁arbit	-11504
▁satisfy	-11505
▁taxi	-11506
▁Moo	-11507
▁Krist	-11508
▁hammer	-11509
▁planted	-11510
▁а	-11511
▁Regional	-11512
▁consolid	-11513
▁Often	-11514
▁mutual	-11515
▁dialogue	-11516
▁Abs	-11517
▁achievement	-11518
▁offerings	-11519
▁McG	-11520
Every	-11521
▁biological	-11522
▁NEW	-11523
▁couples	-11524
▁Pad	-11525
▁pays	-11526
▁pier	-11527
▁zip	-11528
▁Clark	-11529
▁Round	-11530
FF	-11531
rons	-11532
▁killer	-11533
mart	-11534
▁divers	-11535
▁overlook	-11536
isp	-11537
▁tiles	-11538
▁Creative	-11539
▁COM	-11540
▁grave	-11541
▁Consider	-11542
otherapy	-11543
▁excellence	-11544
▁exploration	-11545
▁prayers	-11546
▁accidents	-11547
store	-11548
uther	-11549
▁profound	-11550
▁presentations	-11551
▁backs	-11552
▁appreciation	-11553
umble	-11554
▁Kyle	-11555
▁danced	-11556
▁dozens	-11557
▁essays	-11558
▁Authority	-11559
PP	-11560
aus	-11561
ando	-11562
▁routes	-11563
▁reserv	-11564
▁cosm	-11565
▁Medic	-11566
▁awful	-11567
▁exhausted	-11568
▁tremendous	-11569
▁specifications	-11570
▁Insp	-11571
▁nails	-11572
▁Classic	-11573
▁scattered	-11574
▁rang	-11575
▁addiction	-11576
iper	-11577
▁confirmation	-11578
▁argued	-11579
▁Sport	-11580
▁regarded	-11581
▁Intell	-11582
▁magnificent	-11583
hill	-11584
ioned	-11585
▁candle	-11586
shirt	-11587
▁slides	-11588
▁goodness	-11589
▁Cash	-11590
▁Wisconsin	-11591
▁concentrate	-11592
▁Gran	-11593
▁Nathan	-11594
▁inject	-11595
▁Orange	-11596
olk	-11597
iley	-11598
rella	-11599
▁overhead	-11600
▁counting	-11601
▁Performance	-11602
▁contractors	-11603
▁\-	-11604
erie	-11605
▁Hunter	-11606
inction	-11607
▁trapped	-11608
pent	-11609
gered	-11610
▁Hart	-11611
▁glue	-11612
atching	-11613
▁Chen	-11614
▁experiments	-11615
▁Dean	-11616
▁prince	-11617
▁Reading	-11618
acon	-11619
winning	-11620
▁Afghan	-11621
▁Marcus	-11622
▁seating	-11623
▁overseas	-11624
▁Beat	-11625
▁converted	-11626
▁Nether	-11627
▁Particip	-11628
stop	-11629
▁Host	-11630
plant	-11631
▁bake	-11632
▁ritual	-11633
▁calories	-11634
▁dawn	-11635
▁crushing	-11636
▁cage	-11637
▁liver	-11638
▁voted	-11639
▁thrilled	-11640
▁arguments	-11641
▁chase	-11642
▁grades	-11643
▁patent	-11644
▁affairs	-11645
ican	-11646
▁Coc	-11647
rates	-11648
▁marble	-11649
▁penalty	-11650
▁calculated	-11651
▁curve	-11652
▁fist	-11653
▁Claire	-11654
▁fierce	-11655
▁helicop	-11656
▁rejected	-11657
▁afterwards	-11658
lu	-11659
▁agricultural	-11660
▁uncons	-11661
▁wheat	-11662
▁Install	-11663
▁navigate	-11664
▁PhD	-11665
▁skip	-11666
▁Forum	-11667
▁pause	-11668
▁explaining	-11669
▁delete	-11670
▁installing	-11671
▁EM	-11672
▁lazy	-11673
▁significance	-11674
▁vinyl	-11675
▁implementing	-11676
▁resting	-11677
▁Arthur	-11678
ouri	-11679
▁cure	-11680
▁rounds	-11681
Sc	-11682
onze	-11683
▁camping	-11684
inar	-11685
▁spa	-11686
▁enabling	-11687
week	-11688
▁reveals	-11689
▁ren	-11690
▁spokes	-11691
▁homeless	-11692
▁Bobby	-11693
▁medications	-11694
▁vendor	-11695
▁CM	-11696
▁controller	-11697
▁inflamm	-11698
▁|-	-11699
▁filing	-11700
▁cleaner	-11701
▁reduces	-11702
▁pasta	-11703
retion	-11704
▁transformed	-11705
▁Rab	-11706
▁curtain	-11707
▁hiking	-11708
▁Usually	-11709
▁boundaries	-11710
▁trains	-11711
▁Mexican	-11712
▁Bh	-11713
such	-11714
▁Lot	-11715
▁Ident	-11716
▁memorable	-11717
▁gau	-11718
▁funded	-11719
▁derived	-11720
▁authorized	-11721
asters	-11722
velope	-11723
▁elephant	-11724
▁participated	-11725
asha	-11726
________	-11727
▁Trail	-11728
▁requiring	-11729
▁voltage	-11730
▁tract	-11731
▁ramp	-11732
onel	-11733
▁thesis	-11734
▁resistant	-11735
▁agreements	-11736
▁grandfather	-11737
New	-11738
arms	-11739
▁shelves	-11740
afe	-11741
▁BBC	-11742
▁dessert	-11743
▁exh	-11744
▁infin	-11745
itarian	-11746
bird	-11747
▁Dyn	-11748
▁revers	-11749
▁binding	-11750
▁Der	-11751
tha	-11752
▁Fal	-11753
▁crop	-11754
▁tops	-11755
▁junior	-11756
▁rewards	-11757
▁Turk	-11758
▁vitamin	-11759
▁occupied	-11760
▁curiosity	-11761
ipher	-11762
▁leaning	-11763
▁wealthy	-11764
▁Gabriel	-11765
▁eastern	-11766
ggy	-11767
▁gains	-11768
▁voting	-11769
▁versatile	-11770
gical	-11771
▁Justin	-11772
icken	-11773
▁Sweet	-11774
ANT	-11775
▁drawer	-11776
dge	-11777
▁Ru	-11778
▁NS	-11779
range	-11780
▁analys	-11781
▁occasional	-11782
OVE	-11783
uru	-11784
▁cleans	-11785
▁labels	-11786
▁Cos	-11787
▁Magic	-11788
▁Wonder	-11789
▁deny	-11790
▁Side	-11791
▁propri	-11792
▁NFL	-11793
▁Jennifer	-11794
▁perception	-11795
▁traditions	-11796
▁psychological	-11797
rint	-11798
table	-11799
▁donations	-11800
▁Ju	-11801
▁Mini	-11802
▁Thor	-11803
ascular	-11804
▁mighty	-11805
▁Championship	-11806
▁gel	-11807
▁publications	-11808
wering	-11809
▁AV	-11810
▁dare	-11811
▁particles	-11812
▁dragged	-11813
▁drawings	-11814
idity	-11815
oops	-11816
gree	-11817
▁Princess	-11818
erge	-11819
▁thereby	-11820
▁province	-11821
arat	-11822
▁Princ	-11823
▁decorated	-11824
▁dimension	-11825
kee	-11826
pen	-11827
▁Occ	-11828
km	-11829
▁Gate	-11830
▁measurements	-11831
▁genes	-11832
▁cere	-11833
▁cousin	-11834
keeper	-11835
▁canvas	-11836
▁Liz	-11837
▁jog	-11838
▁Unit	-11839
▁royal	-11840
▁Cambridge	-11841
▁analyze	-11842
▁immense	-11843
▁shipped	-11844
pert	-11845
ostic	-11846
▁flame	-11847
▁suicide	-11848
▁deciding	-11849
▁CF	-11850
backs	-11851
▁belongs	-11852
▁FR	-11853
▁attractions	-11854
onia	-11855
IE	-11856
IGH	-11857
▁Bene	-11858
▁Marine	-11859
▁Mission	-11860
▁ecosystem	-11861
▁alternatives	-11862
ouver	-11863
▁Indiana	-11864
ickets	-11865
▁deadline	-11866
▁enthusiasm	-11867
],	-11868
▁WW	-11869
ctic	-11870
ateral	-11871
▁tastes	-11872
▁density	-11873
▁adorable	-11874
essee	-11875
mouth	-11876
▁irre	-11877
▁Kings	-11878
▁arise	-11879
▁logical	-11880
▁’	-11881
itudes	-11882
prises	-11883
▁bikes	-11884
▁makers	-11885
▁Bring	-11886
▁ES	-11887
▁invisible	-11888
▁complaints	-11889
▁swift	-11890
▁Writing	-11891
▁wherein	-11892
apor	-11893
▁ster	-11894
▁recess	-11895
▁implications	-11896
▁rhythm	-11897
▁Actually	-11898
▁flavors	-11899
▁intimate	-11900
▁daughters	-11901
▁disability	-11902
▁Battle	-11903
good	-11904
▁prox	-11905
▁Domin	-11906
▁reflects	-11907
thy	-11908
hole	-11909
▁priced	-11910
▁isolated	-11911
▁respected	-11912
▁suggestion	-11913
▁pole	-11914
▁Resort	-11915
▁accepting	-11916
▁scholarship	-11917
rapeut	-11918
▁Charlotte	-11919
▁continually	-11920
▁packing	-11921
▁hid	-11922
uddle	-11923
▁needle	-11924
▁interpre	-11925
▁Pil	-11926
▁debris	-11927
umni	-11928
▁EP	-11929
▁lobby	-11930
abis	-11931
amon	-11932
▁harmful	-11933
▁referring	-11934
ptic	-11935
▁rolls	-11936
▁schem	-11937
lix	-11938
raham	-11939
▁ties	-11940
▁bonds	-11941
▁dresses	-11942
▁Phill	-11943
▁retailers	-11944
vit	-11945
▁Hyd	-11946
▁dot	-11947
▁poem	-11948
▁Others	-11949
▁Clinton	-11950
▁lifting	-11951
▁disabled	-11952
▁mechanisms	-11953
mont	-11954
▁vocal	-11955
▁reserves	-11956
▁technological	-11957
▁Pitt	-11958
▁notion	-11959
▁MC	-11960
rust	-11961
▁Leo	-11962
▁intend	-11963
▁jungle	-11964
▁mes	-11965
▁Jun	-11966
▁instances	-11967
▁Marie	-11968
▁gaining	-11969
anne	-11970
▁nan	-11971
▁Olympic	-11972
▁Between	-11973
▁tourism	-11974
▁silk	-11975
▁anticipated	-11976
▁CT	-11977
▁excessive	-11978
▁suspected	-11979
▁sins	-11980
▁Maryland	-11981
▁encry	-11982
atical	-11983
lihood	-11984
▁Nation	-11985
▁luxurious	-11986
▁continuously	-11987
lay	-11988
nor	-11989
olar	-11990
orient	-11991
▁Delhi	-11992
gets	-11993
udge	-11994
▁ours	-11995
▁perpet	-11996
▁avoiding	-11997
▁Bor	-11998
▁Holl	-11999
▁foolish	-12000
ousing	-12001
struct	-12002
ountain	-12003
▁exhibit	-12004
▁bg	-12005
acco	-12006
ixed	-12007
ocus	-12008
▁Size	-12009
▁failing	-12010
akh	-12011
▁Grey	-12012
▁Final	-12013
▁Dragon	-12014
tan	-12015
ocated	-12016
▁chains	-12017
▁sustainability	-12018
▁Lane	-12019
▁disk	-12020
▁verify	-12021
▁mercy	-12022
▁modest	-12023
▁Simple	-12024
▁lightning	-12025
Te	-12026
▁loading	-12027
▁proudly	-12028
mers	-12029
▁Lie	-12030
▁knowledgeable	-12031
ometer	-12032
▁sincere	-12033
▁incorporated	-12034
▁Gh	-12035
▁helmet	-12036
▁pollution	-12037
▁jazz	-12038
▁Judge	-12039
▁defensive	-12040
▁Rot	-12041
▁regime	-12042
▁bankrupt	-12043
▁zoom	-12044
▁Jamie	-12045
▁bleeding	-12046
▁Industrial	-12047
Any	-12048
▁scoring	-12049
▁Rober	-12050
season	-12051
▁Got	-12052
▁lovers	-12053
▁stakeholders	-12054
uity	-12055
▁herbs	-12056
▁tablets	-12057
▁Yah	-12058
▁cyl	-12059
enery	-12060
▁Phoenix	-12061
▁Lay	-12062
▁Restaur	-12063
▁discrim	-12064
▁heels	-12065
▁grants	-12066
▁radiation	-12067
▁Terms	-12068
▁watches	-12069
▁squeezed	-12070
ancouver	-12071
▁classical	-12072
▁wool	-12073
▁stere	-12074
▁glowing	-12075
▁independence	-12076
▁BR	-12077
▁Nich	-12078
▁citizen	-12079
▁Scottish	-12080
dess	-12081
▁Fortunately	-12082
check	-12083
▁sung	-12084
▁Islands	-12085
▁Meeting	-12086
▁magazines	-12087
APTER	-12088
▁palace	-12089
▁supporters	-12090
▁fond	-12091
▁Tower	-12092
▁instructor	-12093
▁rend	-12094
▁Floor	-12095
▁magnetic	-12096
▁counted	-12097
▁analytics	-12098
▁righteous	-12099
NS	-12100
ailed	-12101
▁Dim	-12102
▁nerve	-12103
▁Almost	-12104
▁betray	-12105
▁curtains	-12106
mg	-12107
▁Naz	-12108
▁muff	-12109
▁devoted	-12110
lights	-12111
▁needing	-12112
▁renowned	-12113
▁flip	-12114
▁offense	-12115
▁Throughout	-12116
▁recommendation	-12117
▁Introdu	-12118
▁CV	-12119
▁constr	-12120
▁iconic	-12121
▁replacing	-12122
God	-12123
▁Ark	-12124
▁mart	-12125
▁lover	-12126
▁hurried	-12127
isine	-12128
▁invested	-12129
▁exclaimed	-12130
=#	-12131
▁contacted	-12132
▁clapped	-12133
▁drank	-12134
idd	-12135
▁polite	-12136
▁Julia	-12137
▁holder	-12138
▁celebrating	-12139
▁annually	-12140
▁sore	-12141
▁speeds	-12142
will	-12143
▁Fle	-12144
▁fails	-12145
▁clarity	-12146
▁slammed	-12147
▁attracted	-12148
log	-12149
▁thoughtful	-12150
▁transparent	-12151
▁breed	-12152
▁Furniture	-12153
▁confidential	-12154
cha	-12155
▁actress	-12156
▁refrigerator	-12157
bus	-12158
▁maj	-12159
▁prophe	-12160
▁profiles	-12161
oub	-12162
▁Date	-12163
amel	-12164
▁Mason	-12165
▁publicly	-12166
▁tomatoes	-12167
▁precision	-12168
even	-12169
▁Jessica	-12170
▁Chel	-12171
▁departure	-12172
▁unp	-12173
▁texts	-12174
▁wrest	-12175
avan	-12176
▁sensors	-12177
▁consultant	-12178
othy	-12179
▁Assembly	-12180
▁Ka	-12181
▁pert	-12182
▁aging	-12183
▁Whenever	-12184
▁utilized	-12185
rels	-12186
ventions	-12187
Have	-12188
llo	-12189
Some	-12190
building	-12191
hess	-12192
▁fare	-12193
▁IL	-12194
uming	-12195
▁Sony	-12196
oft	-12197
▁defic	-12198
oard	-12199
▁addressing	-12200
▁bgcolor	-12201
▁reactions	-12202
▁Virt	-12203
selling	-12204
▁careers	-12205
▁Exp	-12206
▁brushed	-12207
▁complexity	-12208
DR	-12209
Ind	-12210
maker	-12211
▁Rent	-12212
▁tailored	-12213
▁Rebe	-12214
▁horizon	-12215
▁catalog	-12216
▁obligation	-12217
roit	-12218
▁Buff	-12219
▁Roger	-12220
▁Future	-12221
▁Greece	-12222
▁readily	-12223
party	-12224
▁Linda	-12225
▁Speed	-12226
▁Years	-12227
▁ordering	-12228
▁sixth	-12229
▁Nevertheless	-12230
▁loyalty	-12231
▁utilizing	-12232
▁hydro	-12233
▁tropical	-12234
▁spicy	-12235
▁Mand	-12236
▁hips	-12237
lahoma	-12238
▁safer	-12239
▁Analysis	-12240
acked	-12241
▁Bruce	-12242
▁unlimited	-12243
▁attendance	-12244
▁File	-12245
▁Total	-12246
▁unlock	-12247
▁ethnic	-12248
▁newsletter	-12249
▁humble	-12250
▁ratings	-12251
isha	-12252
▁Prep	-12253
▁proteins	-12254
ctive	-12255
hot	-12256
▁Stra	-12257
ricane	-12258
▁humor	-12259
▁immigration	-12260
▁pione	-12261
▁Palestin	-12262
▁adjacent	-12263
▁Netherlands	-12264
▁betting	-12265
▁DE	-12266
arse	-12267
rots	-12268
▁thrust	-12269
▁prosper	-12270
▁obligations	-12271
▁Discover	-12272
▁Qur	-12273
▁envelope	-12274
▁influenced	-12275
adays	-12276
aneous	-12277
▁consec	-12278
▁formats	-12279
▁diagnosed	-12280
▁programmes	-12281
▁popped	-12282
▁modules	-12283
▁Especially	-12284
▁Practice	-12285
▁vegetable	-12286
▁GPS	-12287
▁hugs	-12288
▁leak	-12289
igenous	-12290
▁silently	-12291
stick	-12292
writing	-12293
▁preferences	-12294
▁bru	-12295
▁Tyler	-12296
▁spreading	-12297
▁resur	-12298
▁blessing	-12299
▁Alf	-12300
▁wax	-12301
▁Junior	-12302
▁Foreign	-12303
▁coaches	-12304
▁sensation	-12305
iping	-12306
▁deemed	-12307
▁Certified	-12308
uv	-12309
arios	-12310
▁("	-12311
▁crimes	-12312
▁Muslims	-12313
▁steering	-12314
storm	-12315
▁solving	-12316
▁Vit	-12317
▁Satan	-12318
▁gloves	-12319
▁McK	-12320
▁Half	-12321
▁Java	-12322
▁Amanda	-12323
▁handsome	-12324
author	-12325
▁realm	-12326
▁Da	-12327
▁swam	-12328
▁cheered	-12329
zo	-12330
hist	-12331
▁draws	-12332
▁beam	-12333
▁browse	-12334
▁combines	-12335
Fig	-12336
▁Roc	-12337
▁Bart	-12338
▁elabor	-12339
▁aver	-12340
▁Israeli	-12341
▁audiences	-12342
▁swallowed	-12343
▁Len	-12344
aters	-12345
▁Month	-12346
▁punishment	-12347
▁Ba	-12348
▁workforce	-12349
▁flames	-12350
▁Kr	-12351
▁cargo	-12352
▁alright	-12353
▁radical	-12354
pur	-12355
ontal	-12356
▁Compet	-12357
▁bout	-12358
▁fires	-12359
▁hears	-12360
mate	-12361
break	-12362
▁welcoming	-12363
clock	-12364
▁query	-12365
▁unemploy	-12366
▁flows	-12367
▁cooler	-12368
▁Bright	-12369
▁bubble	-12370
held	-12371
▁subt	-12372
▁escaped	-12373
▁playground	-12374
urrent	-12375
▁Liter	-12376
▁onion	-12377
▁Denver	-12378
▁reck	-12379
▁corridor	-12380
.-	-12381
illance	-12382
▁Soviet	-12383
▁theore	-12384
▁Additional	-12385
ounced	-12386
▁separately	-12387
▁Hans	-12388
▁understands	-12389
dog	-12390
uscript	-12391
▁explored	-12392
▁LORD	-12393
▁Dance	-12394
▁Channel	-12395
▁Nigeria	-12396
ropri	-12397
rek	-12398
▁til	-12399
olitan	-12400
▁Opp	-12401
▁cray	-12402
▁acted	-12403
▁disposal	-12404
▁answering	-12405
ailand	-12406
▁Tennessee	-12407
▁%	-12408
adesh	-12409
working	-12410
specific	-12411
▁contrary	-12412
▁grill	-12413
▁villages	-12414
▁observation	-12415
▁una	-12416
liest	-12417
▁Recently	-12418
earing	-12419
▁facial	-12420
▁suspic	-12421
attering	-12422
▁optional	-12423
def	-12424
arette	-12425
▁deduct	-12426
▁Alliance	-12427
bet	-12428
otype	-12429
▁Success	-12430
▁nutrients	-12431
▁restricted	-12432
▁Article	-12433
▁reliability	-12434
▁unnecessary	-12435
▁Aunt	-12436
▁Carib	-12437
▁Interior	-12438
▁pairs	-12439
▁infant	-12440
▁д	-12441
▁faded	-12442
▁ranks	-12443
itzerland	-12444
conf	-12445
▁assert	-12446
▁intake	-12447
CP	-12448
▁Defin	-12449
▁Howard	-12450
OG	-12451
▁embedded	-12452
▁CHAPTER	-12453
▁ED	-12454
▁Vent	-12455
▁Term	-12456
▁hike	-12457
▁Julie	-12458
▁crafts	-12459
▁experimental	-12460
▁happier	-12461
”)	-12462
isting	-12463
ended	-12464
▁Uncle	-12465
alink	-12466
▁Mayor	-12467
▁commands	-12468
▁recipient	-12469
▁exped	-12470
▁Course	-12471
▁Challenge	-12472
LD	-12473
▁Rout	-12474
je	-12475
▁entities	-12476
▁dealt	-12477
▁filters	-12478
▁Diamond	-12479
aco	-12480
remy	-12481
oples	-12482
▁recycling	-12483
▁stuffed	-12484
▁promising	-12485
ques	-12486
enged	-12487
▁cant	-12488
▁easiest	-12489
▁specially	-12490
▁dug	-12491
▁charts	-12492
▁Fish	-12493
▁Faith	-12494
▁restored	-12495
shot	-12496
▁Clar	-12497
▁glob	-12498
▁Fant	-12499
▁stun	-12500
▁ashamed	-12501
▁smoothly	-12502
▁Vancouver	-12503
▁Commercial	-12504
rise	-12505
▁Whit	-12506
ountered	-12507
aired	-12508
▁pean	-12509
alities	-12510
▁matched	-12511
▁establishing	-12512
anship	-12513
▁Sweden	-12514
▁Enterprise	-12515
▁Sri	-12516
click	-12517
▁barg	-12518
▁dos	-12519
▁voter	-12520
▁travels	-12521
▁Alab	-12522
▁votes	-12523
▁finishes	-12524
▁foster	-12525
▁agriculture	-12526
▁handles	-12527
▁downloaded	-12528
▁slice	-12529
Hz	-12530
RP	-12531
▁alleg	-12532
▁cancel	-12533
▁Football	-12534
?_	-12535
▁Hop	-12536
▁Either	-12537
▁rocket	-12538
onge	-12539
és	-12540
▁Iowa	-12541
▁ridiculous	-12542
IVE	-12543
▁gates	-12544
▁driveway	-12545
▁moderate	-12546
▁marijuana	-12547
▁marketplace	-12548
anas	-12549
▁Ted	-12550
▁purse	-12551
Will	-12552
▁insure	-12553
▁Francis	-12554
▁sponsored	-12555
▁Fel	-12556
izable	-12557
▁valued	-12558
ан	-12559
▁Amb	-12560
▁tags	-12561
▁lungs	-12562
▁cracked	-12563
lie	-12564
▁Cart	-12565
▁talents	-12566
▁Portland	-12567
▁clut	-12568
▁fisher	-12569
▁Chairman	-12570
plus	-12571
▁Lex	-12572
▁Block	-12573
▁encountered	-12574
aga	-12575
▁attorneys	-12576
OB	-12577
anth	-12578
▁peers	-12579
▁shirts	-12580
▁specialty	-12581
dered	-12582
▁grief	-12583
liver	-12584
rowave	-12585
▁Coffee	-12586
▁inviting	-12587
▁owns	-12588
▁variations	-12589
▁toes	-12590
AG	-12591
▁belonged	-12592
▁Craft	-12593
▁Schools	-12594
ilitation	-12595
▁UP	-12596
▁Meet	-12597
▁entrepreneur	-12598
▁rested	-12599
▁Coach	-12600
▁Syria	-12601
▁rivers	-12602
▁bears	-12603
▁umb	-12604
▁Bureau	-12605
▁Revolution	-12606
irsty	-12607
▁Single	-12608
▁Abraham	-12609
▁fart	-12610
▁favorites	-12611
ylon	-12612
reated	-12613
▁detected	-12614
Stop	-12615
▁Roll	-12616
▁poster	-12617
▁rage	-12618
▁Saudi	-12619
▁refreshing	-12620
IB	-12621
▁cycl	-12622
▁motorcycle	-12623
▁collaborative	-12624
tech	-12625
▁titled	-12626
▁submission	-12627
▁execut	-12628
▁useless	-12629
mare	-12630
▁costly	-12631
▁wellness	-12632
▁Nurs	-12633
▁exem	-12634
▁accred	-12635
▁potato	-12636
▁Oklahoma	-12637
ni	-12638
▁miser	-12639
▁seeks	-12640
▁tomato	-12641
▁tucked	-12642
▁Springs	-12643
▁earning	-12644
▁Sin	-12645
▁sniff	-12646
isy	-12647
▁Gray	-12648
▁physics	-12649
▁salvation	-12650
igo	-12651
▁Sammy	-12652
▁prospects	-12653
▁populations	-12654
ividual	-12655
▁surviv	-12656
commerce	-12657
ipper	-12658
▁sunset	-12659
alia	-12660
▁louder	-12661
▁vampire	-12662
▁preventing	-12663
▁Ethan	-12664
▁fiscal	-12665
▁Bookmark	-12666
▁partially	-12667
▁SW	-12668
▁modify	-12669
▁societ	-12670
▁SF	-12671
ju	-12672
▁panc	-12673
▁greeted	-12674
▁outline	-12675
▁showcase	-12676
▁individually	-12677
▁Kel	-12678
▁Gulf	-12679
▁chaos	-12680
▁spouse	-12681
▁corporations	-12682
▁surprisingly	-12683
open	-12684
▁documentary	-12685
▁warehouse	-12686
▁Pas	-12687
▁democracy	-12688
▁headquarters	-12689
▁overt	-12690
▁complain	-12691
di	-12692
ido	-12693
▁separation	-12694
▁controlling	-12695
Per	-12696
▁Hung	-12697
▁Mall	-12698
▁naught	-12699
▁DS	-12700
▁Ath	-12701
elson	-12702
▁aunt	-12703
▁Galaxy	-12704
▁dedication	-12705
town	-12706
▁cottage	-12707
▁suspension	-12708
▁Missouri	-12709
,_	-12710
▁Pin	-12711
▁quarters	-12712
▁Letter	-12713
▁splash	-12714
▁computing	-12715
▁perfection	-12716
▁Prot	-12717
▁wonders	-12718
▁presenting	-12719
best	-12720
▁seated	-12721
gic	-12722
▁Hopefully	-12723
▁legitimate	-12724
ре	-12725
▁Harris	-12726
▁ranking	-12727
▁desperately	-12728
▁amp	-12729
▁quot	-12730
writer	-12731
▁Certain	-12732
▁Bag	-12733
▁executed	-12734
▁Ta	-12735
▁Veter	-12736
▁petition	-12737
▁accurately	-12738
▁cruel	-12739
▁mothers	-12740
▁switched	-12741
▁Pos	-12742
▁enroll	-12743
▁reminds	-12744
▁functioning	-12745
▁shaft	-12746
▁thresh	-12747
▁distinctive	-12748
▁competing	-12749
▁Email	-12750
▁Katie	-12751
▁Queens	-12752
▁Agricult	-12753
▁hazard	-12754
▁Affairs	-12755
▁vessels	-12756
▁destinations	-12757
▁Days	-12758
VC	-12759
ols	-12760
▁Door	-12761
▁sacred	-12762
▁Otherwise	-12763
▁pistol	-12764
▁Switzerland	-12765
▁dele	-12766
▁integrate	-12767
With	-12768
▁Therap	-12769
icular	-12770
▁costume	-12771
▁leisure	-12772
iche	-12773
▁balcony	-12774
▁revealing	-12775
▁navigation	-12776
▁Apparently	-12777
▁rows	-12778
quisite	-12779
▁electronics	-12780
▁Carm	-12781
mary	-12782
▁Samuel	-12783
▁pencil	-12784
▁Present	-12785
rac	-12786
▁proposals	-12787
▁ruling	-12788
▁sq	-12789
llar	-12790
peror	-12791
▁wage	-12792
▁spider	-12793
▁congreg	-12794
▁counts	-12795
▁dentist	-12796
▁م	-12797
pres	-12798
▁Prize	-12799
▁resolved	-12800
▁Michelle	-12801
▁raced	-12802
▁wagon	-12803
▁avoided	-12804
▁supportive	-12805
▁overs	-12806
▁referr	-12807
▁Previous	-12808
arness	-12809
▁messy	-12810
▁additionally	-12811
▁straightforward	-12812
hard	-12813
▁attributes	-12814
▁"...	-12815
chestra	-12816
▁Beyond	-12817
▁sadly	-12818
▁episodes	-12819
▁opponent	-12820
▁Companies	-12821
▁slim	-12822
emet	-12823
▁Parker	-12824
▁Imagine	-12825
▁merchand	-12826
rik	-12827
▁welf	-12828
cow	-12829
ICE	-12830
▁Heat	-12831
▁perceived	-12832
▁sealed	-12833
▁Bitcoin	-12834
▁appealing	-12835
▁appearing	-12836
▁romance	-12837
▁Kath	-12838
▁mice	-12839
▁lane	-12840
▁Equipment	-12841
▁hi	-12842
▁welfare	-12843
ensively	-12844
▁cognitive	-12845
perform	-12846
▁Dump	-12847
▁visa	-12848
▁backwards	-12849
▁variables	-12850
▁([	-12851
▁Mun	-12852
▁sailing	-12853
▁assisted	-12854
▁offensive	-12855
▁Thanksgiving	-12856
▁creep	-12857
▁tremb	-12858
ixtures	-12859
▁booked	-12860
▁locals	-12861
▁Duke	-12862
▁unre	-12863
▁bride	-12864
▁Cold	-12865
▁Hence	-12866
▁Bah	-12867
▁paste	-12868
▁horr	-12869
ustain	-12870
▁revol	-12871
▁Celebr	-12872
▁Jeremy	-12873
▁dispute	-12874
owned	-12875
inally	-12876
▁Annie	-12877
▁illum	-12878
▁nurses	-12879
▁Thailand	-12880
▁witnessed	-12881
zzle	-12882
▁fortune	-12883
gue	-12884
▁nit	-12885
▁rides	-12886
▁Gordon	-12887
▁Heritage	-12888
render	-12889
▁neuro	-12890
▁Unless	-12891
upt	-12892
▁gum	-12893
▁accessed	-12894
▁Attorney	-12895
▁Reserve	-12896
▁consumed	-12897
▁reson	-12898
naments	-12899
▁crowded	-12900
gate	-12901
▁Feel	-12902
▁Nep	-12903
▁Wire	-12904
▁hypot	-12905
▁defeated	-12906
▁evolved	-12907
▁realise	-12908
bes	-12909
▁ruled	-12910
▁determining	-12911
▁sheer	-12912
▁Remove	-12913
▁Ave	-12914
▁Fine	-12915
▁ranges	-12916
▁explicit	-12917
▁plugin	-12918
▁stepping	-12919
▁Democrats	-12920
▁machinery	-12921
▁relatives	-12922
▁ISO	-12923
shore	-12924
▁Falls	-12925
▁Century	-12926
▁libraries	-12927
▁zoo	-12928
▁Nash	-12929
outheast	-12930
▁Malaysia	-12931
ECT	-12932
aug	-12933
▁Wa	-12934
▁Larry	-12935
▁Records	-12936
▁Depending	-12937
▁Communications	-12938
****	-12939
apel	-12940
ulates	-12941
▁genre	-12942
rehe	-12943
ainted	-12944
mediate	-12945
▁Iss	-12946
▁devil	-12947
HD	-12948
▁comf	-12949
▁midnight	-12950
UI	-12951
▁Shan	-12952
")	-12953
▁arc	-12954
forced	-12955
▁Technical	-12956
▁DIY	-12957
▁partial	-12958
▁polished	-12959
itants	-12960
▁Barry	-12961
pectives	-12962
▁tends	-12963
▁listings	-12964
▁Alabama	-12965
▁worries	-12966
▁Bun	-12967
▁Drug	-12968
▁veteran	-12969
▁discretion	-12970
FS	-12971
▁Hig	-12972
▁clue	-12973
▁sleeve	-12974
▁positioned	-12975
type	-12976
▁Yellow	-12977
ulin	-12978
▁admire	-12979
trans	-12980
▁acute	-12981
▁receiver	-12982
▁Kam	-12983
arency	-12984
▁Moses	-12985
▁dimin	-12986
▁sends	-12987
ometric	-12988
▁cushion	-12989
▁colleges	-12990
▁pee	-12991
▁scram	-12992
▁venues	-12993
▁barriers	-12994
▁corruption	-12995
▁pref	-12996
▁repeatedly	-12997
▁Argent	-12998
▁Chamber	-12999
▁Luckily	-13000
uri	-13001
▁owl	-13002
▁muttered	-13003
▁progressive	-13004
▁notification	-13005
umbers	-13006
▁Wedding	-13007
▁Highway	-13008
▁arriving	-13009
aci	-13010
eland	-13011
jack	-13012
▁variation	-13013
!).	-13014
:**	-13015
▁volunt	-13016
▁weekends	-13017
ement	-13018
green	-13019
▁Brow	-13020
▁baked	-13021
▁angels	-13022
TML	-13023
apolis	-13024
effective	-13025
▁Dat	-13026
▁toe	-13027
▁perf	-13028
▁wars	-13029
▁rival	-13030
▁honored	-13031
fold	-13032
▁nods	-13033
▁incorrect	-13034
isers	-13035
▁obey	-13036
▁farming	-13037
▁musician	-13038
▁recognised	-13039
▁Ku	-13040
▁Advis	-13041
▁Math	-13042
▁Swiss	-13043
▁technicians	-13044
▁dip	-13045
▁albums	-13046
▁correl	-13047
steps	-13048
occ	-13049
▁tin	-13050
▁Cars	-13051
▁believing	-13052
▁Language	-13053
▁priorities	-13054
▁proportion	-13055
▁pedest	-13056
те	-13057
fund	-13058
nels	-13059
allic	-13060
▁backing	-13061
▁gravity	-13062
▁outlet	-13063
▁disciples	-13064
cat	-13065
▁Od	-13066
pher	-13067
▁builds	-13068
▁Antonio	-13069
▁Carter	-13070
adi	-13071
▁lever	-13072
▁spite	-13073
children	-13074
▁forcing	-13075
▁ain	-13076
▁Corp	-13077
▁theft	-13078
rena	-13079
▁corporation	-13080
▁recruitment	-13081
gs	-13082
▁basics	-13083
mentation	-13084
▁premises	-13085
▁preference	-13086
ITY	-13087
▁Leave	-13088
▁serial	-13089
▁Barbara	-13090
▁surgical	-13091
▁varieties	-13092
some	-13093
▁Cow	-13094
anean	-13095
▁micros	-13096
▁brass	-13097
▁affecting	-13098
▁commented	-13099
pace	-13100
▁deadly	-13101
▁showc	-13102
▁metres	-13103
gra	-13104
▁Rand	-13105
rock	-13106
▁questioned	-13107
▁unsure	-13108
BN	-13109
▁laying	-13110
▁Dest	-13111
▁amid	-13112
▁seasonal	-13113
▁Christopher	-13114
ORE	-13115
▁Title	-13116
▁incur	-13117
umed	-13118
▁swept	-13119
▁plumbing	-13120
HL	-13121
▁warming	-13122
▁architectural	-13123
▁hockey	-13124
▁Neither	-13125
▁MY	-13126
▁Som	-13127
▁supplements	-13128
imb	-13129
▁obed	-13130
▁contributing	-13131
shaped	-13132
▁applicants	-13133
▁threatening	-13134
elia	-13135
▁din	-13136
reedom	-13137
▁Purch	-13138
▁YOUR	-13139
▁impat	-13140
▁Relations	-13141
▁Rene	-13142
▁toast	-13143
▁Caribbean	-13144
▁Obviously	-13145
▁secretary	-13146
UST	-13147
▁BL	-13148
▁valve	-13149
▁challenged	-13150
▁AW	-13151
▁Allow	-13152
▁elite	-13153
▁breach	-13154
▁footage	-13155
usive	-13156
▁epic	-13157
▁dated	-13158
▁frightened	-13159
▁Begin	-13160
▁drown	-13161
▁differ	-13162
oline	-13163
▁Seth	-13164
▁expend	-13165
▁reasonably	-13166
▁Lad	-13167
arded	-13168
▁Used	-13169
▁ze	-13170
isan	-13171
▁USD	-13172
▁Oliver	-13173
▁adjustable	-13174
▁Maj	-13175
emetery	-13176
▁adverse	-13177
▁mock	-13178
ancers	-13179
▁substitute	-13180
▁suggesting	-13181
leton	-13182
normal	-13183
▁socks	-13184
▁wounds	-13185
▁wicked	-13186
▁automation	-13187
▁Scar	-13188
▁dense	-13189
▁Path	-13190
▁indul	-13191
▁recovered	-13192
▁highlighted	-13193
ITH	-13194
ittens	-13195
▁crops	-13196
Ps	-13197
▁teens	-13198
▁healthier	-13199
▁Philippines	-13200
▁Brew	-13201
▁Hit	-13202
ulu	-13203
ivia	-13204
▁comic	-13205
▁frost	-13206
▁stressed	-13207
▁Ja	-13208
▁Osc	-13209
Mommy	-13210
▁brut	-13211
▁Hem	-13212
iolet	-13213
▁fortunate	-13214
▁uk	-13215
▁pulse	-13216
▁assure	-13217
▁onions	-13218
▁Crystal	-13219
master	-13220
▁Metal	-13221
▁sanct	-13222
sex	-13223
▁attain	-13224
▁yarn	-13225
▁contempl	-13226
▁practiced	-13227
▁downstairs	-13228
▁Pink	-13229
▁Editor	-13230
▁championship	-13231
IO	-13232
▁Bapt	-13233
▁Stu	-13234
about	-13235
▁governance	-13236
ounce	-13237
▁hass	-13238
▁mentally	-13239
▁wardrobe	-13240
TMt	-13241
▁lam	-13242
▁statue	-13243
▁corrupt	-13244
▁servant	-13245
osity	-13246
▁Alaska	-13247
▁Defense	-13248
offs	-13249
▁hunger	-13250
▁rounded	-13251
▁prospective	-13252
▁Fro	-13253
▁annoying	-13254
▁Ye	-13255
▁Posted	-13256
▁Premier	-13257
thod	-13258
▁Results	-13259
ugar	-13260
▁scare	-13261
PL	-13262
▁Style	-13263
▁manuscript	-13264
▁internationally	-13265
▁Suz	-13266
▁immers	-13267
▁blogging	-13268
▁semester	-13269
▁Cu	-13270
▁Testament	-13271
▁chim	-13272
En	-13273
▁Fat	-13274
▁Detroit	-13275
▁homeowners	-13276
▁Champ	-13277
▁Seven	-13278
▁inherent	-13279
advant	-13280
▁investor	-13281
▁pel	-13282
asma	-13283
▁dumb	-13284
▁Pharm	-13285
▁consistency	-13286
tra	-13287
▁packs	-13288
▁overwhelmed	-13289
▁helpless	-13290
▁fract	-13291
▁Palace	-13292
▁Dubai	-13293
▁touches	-13294
▁stubborn	-13295
▁ethical	-13296
▁thermal	-13297
▁Pow	-13298
▁theories	-13299
ratulations	-13300
achers	-13301
▁violation	-13302
▁indicating	-13303
▁Slow	-13304
▁remed	-13305
lad	-13306
idal	-13307
▁pose	-13308
▁Resume	-13309
ometry	-13310
▁whistle	-13311
▁Multi	-13312
▁diver	-13313
▁blowing	-13314
▁forests	-13315
asis	-13316
plan	-13317
▁rul	-13318
marks	-13319
▁Index	-13320
chant	-13321
▁minerals	-13322
▁consume	-13323
▁kits	-13324
▁Native	-13325
▁Prophet	-13326
▁UV	-13327
onom	-13328
▁Trib	-13329
▁arrives	-13330
▁`	-13331
▁ruined	-13332
▁permalink	-13333
▁melted	-13334
stration	-13335
built	-13336
▁flee	-13337
▁Phone	-13338
▁proceedings	-13339
post	-13340
▁astron	-13341
▁honour	-13342
▁bicycle	-13343
commun	-13344
▁Except	-13345
▁Maggie	-13346
▁cigarette	-13347
▁compelling	-13348
EX	-13349
impse	-13350
reach	-13351
▁granite	-13352
rose	-13353
depth	-13354
etooth	-13355
▁Rebecca	-13356
two	-13357
▁Pages	-13358
▁Toyota	-13359
▁AF	-13360
▁lenses	-13361
▁gesture	-13362
▁Brooklyn	-13363
▁Excellent	-13364
▁automotive	-13365
▁Ott	-13366
▁generating	-13367
▁VA	-13368
▁Mail	-13369
▁Sett	-13370
▁collapse	-13371
▁homemade	-13372
▁batch	-13373
▁rifle	-13374
▁stabil	-13375
▁upright	-13376
▁mobility	-13377
▁Flash	-13378
▁liable	-13379
▁leverage	-13380
▁Nort	-13381
▁ling	-13382
▁mater	-13383
ictionary	-13384
▁judges	-13385
▁educated	-13386
▁inevitable	-13387
link	-13388
encer	-13389
▁Graham	-13390
▁Deal	-13391
uations	-13392
▁Entertain	-13393
▁obtaining	-13394
thr	-13395
▁tanks	-13396
▁solved	-13397
▁indirect	-13398
▁informative	-13399
==	-13400
opl	-13401
▁murm	-13402
▁Bachel	-13403
▁sticking	-13404
▁comprises	-13405
▁doct	-13406
▁Ot	-13407
▁labour	-13408
▁crafted	-13409
▁wounded	-13410
▁boil	-13411
▁chapters	-13412
▁startup	-13413
KE	-13414
cium	-13415
▁translated	-13416
ele	-13417
▁pools	-13418
▁gospel	-13419
▁vanilla	-13420
▁wallpaper	-13421
▁conferences	-13422
▁Craig	-13423
▁blocking	-13424
▁unconscious	-13425
len	-13426
iere	-13427
▁login	-13428
▁Margaret	-13429
▁Import	-13430
▁WE	-13431
▁longest	-13432
▁squeeze	-13433
aton	-13434
amins	-13435
▁phenomenon	-13436
▁dramatically	-13437
▁bees	-13438
▁explosion	-13439
▁decorative	-13440
▁Sandy	-13441
game	-13442
▁Dak	-13443
.).	-13444
▁Nev	-13445
▁Compl	-13446
▁conducting	-13447
▁و	-13448
▁pickup	-13449
nered	-13450
▁Probably	-13451
▁deserves	-13452
▁drill	-13453
▁Screen	-13454
▁organizing	-13455
idel	-13456
ucks	-13457
▁Seb	-13458
cuits	-13459
ington	-13460
▁cliff	-13461
icker	-13462
▁mane	-13463
▁manually	-13464
▁Moore	-13465
▁eyebrows	-13466
▁decorating	-13467
▁fet	-13468
▁Bond	-13469
▁Element	-13470
ERY	-13471
▁wrink	-13472
▁attraction	-13473
▁RA	-13474
▁sip	-13475
aro	-13476
▁Hom	-13477
▁gay	-13478
▁Safe	-13479
▁vague	-13480
▁commod	-13481
▁smells	-13482
▁Hamilton	-13483
▁scenarios	-13484
▁durability	-13485
thon	-13486
▁sob	-13487
four	-13488
▁Eye	-13489
▁cone	-13490
▁ports	-13491
▁ripped	-13492
▁coupled	-13493
▁naughty	-13494
▁praying	-13495
name	-13496
▁thou	-13497
▁dreamed	-13498
▁Question	-13499
▁GT	-13500
▁Yoga	-13501
▁Chase	-13502
rapeutic	-13503
▁Ga	-13504
▁prayed	-13505
▁digging	-13506
▁dys	-13507
▁Region	-13508
▁imaging	-13509
▁psychology	-13510
▁strings	-13511
CL	-13512
uke	-13513
▁condem	-13514
▁vo	-13515
▁rip	-13516
▁linear	-13517
▁Universal	-13518
▁promotional	-13519
▁Mes	-13520
▁novels	-13521
▁streams	-13522
▁Hawaii	-13523
amas	-13524
fefe	-13525
▁Dougl	-13526
▁pupils	-13527
▁algorithm	-13528
olo	-13529
angel	-13530
▁noon	-13531
hedral	-13532
▁landl	-13533
▁static	-13534
▁Storage	-13535
▁glimpse	-13536
▁suspended	-13537
▁assignments	-13538
▁Mine	-13539
▁Hub	-13540
▁foss	-13541
▁shifting	-13542
sk	-13543
▁Repair	-13544
▁responsive	-13545
▁Maine	-13546
▁Russell	-13547
▁CBD	-13548
▁mant	-13549
▁meter	-13550
▁Todd	-13551
▁dont	-13552
▁hose	-13553
ffection	-13554
▁Vincent	-13555
▁carrots	-13556
▁Update	-13557
▁advocate	-13558
▁realizing	-13559
▁Desk	-13560
▁tan	-13561
▁laughs	-13562
▁shove	-13563
utenant	-13564
▁Bowl	-13565
▁Ridge	-13566
▁reign	-13567
ulously	-13568
▁ANY	-13569
▁eyel	-13570
▁coastal	-13571
▁camps	-13572
atar	-13573
▁wipe	-13574
▁Train	-13575
▁shorts	-13576
conscious	-13577
▁ic	-13578
▁Obs	-13579
▁chemistry	-13580
▁criticism	-13581
▁brack	-13582
▁wides	-13583
▁Manual	-13584
▁pumpkin	-13585
gel	-13586
▁Fif	-13587
▁Gib	-13588
▁hay	-13589
▁borders	-13590
▁Liver	-13591
▁partly	-13592
abad	-13593
▁blinked	-13594
▁coating	-13595
▁liberal	-13596
jud	-13597
▁audit	-13598
▁riders	-13599
▁RS	-13600
▁Girls	-13601
▁pension	-13602
▁circular	-13603
agu	-13604
oken	-13605
rolog	-13606
uffed	-13607
▁aston	-13608
agne	-13609
acies	-13610
▁Nancy	-13611
▁faithful	-13612
▁meantime	-13613
ALL	-13614
▁Bio	-13615
▁Typ	-13616
▁Hair	-13617
▁candles	-13618
istically	-13619
▁accordingly	-13620
▁dupl	-13621
▁structured	-13622
▁Clay	-13623
▁slave	-13624
▁momentum	-13625
▁Zach	-13626
▁cement	-13627
▁altogether	-13628
▁Legal	-13629
oes	-13630
alties	-13631
▁subsequently	-13632
▁Ger	-13633
▁helicopter	-13634
chron	-13635
▁Assess	-13636
omething	-13637
unks	-13638
▁pills	-13639
▁Harvard	-13640
dem	-13641
John	-13642
▁permits	-13643
▁dynamics	-13644
▁Constitution	-13645
▁presidential	-13646
sub	-13647
▁trauma	-13648
▁literary	-13649
pread	-13650
▁strengths	-13651
▁classified	-13652
Point	-13653
Right	-13654
▁Organization	-13655
seen	-13656
▁Cad	-13657
▁hind	-13658
▁Robin	-13659
▁uncertainty	-13660
wy	-13661
▁oz	-13662
▁cough	-13663
▁sights	-13664
▁volumes	-13665
▁visibility	-13666
▁reun	-13667
▁integral	-13668
▁Lucas	-13669
▁optical	-13670
▁Kentucky	-13671
▁midst	-13672
▁Ni	-13673
school	-13674
▁restr	-13675
▁cuisine	-13676
▁varying	-13677
▁wishing	-13678
▁promoted	-13679
▁Emb	-13680
▁LOVE	-13681
▁saves	-13682
▁intentions	-13683
▁knot	-13684
▁airline	-13685
▁declined	-13686
▁jury	-13687
▁minimize	-13688
▁sometime	-13689
▁inclusion	-13690
aman	-13691
hero	-13692
▁Hug	-13693
iterr	-13694
function	-13695
anor	-13696
▁armor	-13697
▁abrupt	-13698
▁portray	-13699
▁inflation	-13700
▁surveillance	-13701
▁boasts	-13702
▁legendary	-13703
matic	-13704
▁shallow	-13705
?)	-13706
speed	-13707
▁hurts	-13708
▁affair	-13709
▁claiming	-13710
▁unm	-13711
▁sway	-13712
▁Steph	-13713
▁cries	-13714
▁stadium	-13715
▁maximize	-13716
▁Individual	-13717
leans	-13718
▁nurt	-13719
▁fever	-13720
▁todd	-13721
▁Hebrew	-13722
▁HE	-13723
▁roller	-13724
▁predicted	-13725
plete	-13726
▁tob	-13727
▁tidy	-13728
▁governor	-13729
▁conservative	-13730
▁Lock	-13731
▁stern	-13732
▁Kennedy	-13733
▁ebook	-13734
▁sadness	-13735
corn	-13736
▁mug	-13737
▁Dian	-13738
▁Joshua	-13739
cules	-13740
assador	-13741
▁scientist	-13742
▁Convention	-13743
)(	-13744
non	-13745
▁execute	-13746
▁confusing	-13747
▁Il	-13748
dings	-13749
compass	-13750
▁Urban	-13751
▁Utah	-13752
ighty	-13753
▁gloss	-13754
▁animation	-13755
▁encourages	-13756
▁throne	-13757
erver	-13758
olved	-13759
▁medal	-13760
entials	-13761
▁graduation	-13762
Su	-13763
fam	-13764
▁vegan	-13765
ivities	-13766
▁ingredient	-13767
▁м	-13768
lon	-13769
gans	-13770
▁collapsed	-13771
▁compromise	-13772
idth	-13773
▁chasing	-13774
osa	-13775
▁GB	-13776
▁Holiday	-13777
kyo	-13778
▁Gift	-13779
quest	-13780
hammad	-13781
▁Going	-13782
▁anchor	-13783
▁advances	-13784
wich	-13785
elect	-13786
obs	-13787
▁Dal	-13788
imity	-13789
▁unbel	-13790
▁absorb	-13791
▁courtesy	-13792
▁Moscow	-13793
iens	-13794
around	-13795
▁disabilities	-13796
elf	-13797
▁ET	-13798
▁HTML	-13799
▁forb	-13800
▁Medicare	-13801
FT	-13802
▁Leadership	-13803
▁VPN	-13804
connect	-13805
▁diving	-13806
cend	-13807
▁disagree	-13808
ACK	-13809
Gu	-13810
▁Wine	-13811
▁tuned	-13812
▁google	-13813
▁privilege	-13814
VER	-13815
minded	-13816
keys	-13817
▁congr	-13818
▁Nobody	-13819
▁binary	-13820
▁discom	-13821
▁DR	-13822
Wait	-13823
arner	-13824
▁slowed	-13825
ographical	-13826
▁distracted	-13827
oric	-13828
▁awe	-13829
▁yog	-13830
orized	-13831
▁Chrome	-13832
▁topped	-13833
▁pursuit	-13834
▁singles	-13835
▁decorations	-13836
▁GR	-13837
▁pork	-13838
ли	-13839
▁marvel	-13840
archy	-13841
iries	-13842
▁Walker	-13843
▁lyrics	-13844
▁prizes	-13845
▁adapted	-13846
▁negotiations	-13847
▁HIV	-13848
▁ruin	-13849
▁manages	-13850
▁preview	-13851
your	-13852
▁membr	-13853
▁greed	-13854
▁districts	-13855
▁lively	-13856
[...]
